{
  "version": "1.0",
  "truncation": null,
  "padding": null,
  "added_tokens": [
    {
      "id": 0,
      "content": "[PAD]",
      "single_word": false,
      "lstrip": false,
      "rstrip": false,
      "normalized": false,
      "special": true
    },
    {
      "id": 1,
      "content": "[UNK]",
      "single_word": false,
      "lstrip": false,
      "rstrip": false,
      "normalized": false,
      "special": true
    },
    {
      "id": 2,
      "content": "[BOS]",
      "single_word": false,
      "lstrip": false,
      "rstrip": false,
      "normalized": false,
      "special": true
    },
    {
      "id": 3,
      "content": "[EOS]",
      "single_word": false,
      "lstrip": false,
      "rstrip": false,
      "normalized": false,
      "special": true
    },
    {
      "id": 15127,
      "content": "[CLS]",
      "single_word": false,
      "lstrip": false,
      "rstrip": false,
      "normalized": false,
      "special": true
    }
  ],
  "normalizer": {
    "type": "Sequence",
    "normalizers": [
      {
        "type": "NFC"
      },
      {
        "type": "Replace",
        "pattern": {
          "Regex": "\\s+"
        },
        "content": " "
      }
    ]
  },
  "pre_tokenizer": {
    "type": "Sequence",
    "pretokenizers": [
      {
        "type": "Split",
        "pattern": {
          "Regex": "'s|'t|'re|'ve|'m|'ll|'d|[\\p{L}]+|[\\p{N}]|[^\\s\\p{L}\\p{N}]+"
        },
        "behavior": "Removed",
        "invert": true
      },
      {
        "type": "Digits",
        "individual_digits": true
      },
      {
        "type": "ByteLevel",
        "add_prefix_space": false,
        "trim_offsets": true,
        "use_regex": true
      }
    ]
  },
  "post_processor": {
    "type": "TemplateProcessing",
    "single": [
      {
        "SpecialToken": {
          "id": "[BOS]",
          "type_id": 0
        }
      },
      {
        "Sequence": {
          "id": "A",
          "type_id": 0
        }
      },
      {
        "SpecialToken": {
          "id": "[CLS]",
          "type_id": 0
        }
      }
    ],
    "pair": [
      {
        "Sequence": {
          "id": "A",
          "type_id": 0
        }
      },
      {
        "Sequence": {
          "id": "B",
          "type_id": 1
        }
      }
    ],
    "special_tokens": {
      "[BOS]": {
        "id": "[BOS]",
        "ids": [
          2
        ],
        "tokens": [
          "[BOS]"
        ]
      },
      "[CLS]": {
        "id": "[CLS]",
        "ids": [
          15127
        ],
        "tokens": [
          "[CLS]"
        ]
      }
    }
  },
  "decoder": {
    "type": "BPEDecoder",
    "suffix": "</w>"
  },
  "model": {
    "type": "BPE",
    "dropout": null,
    "unk_token": "[UNK]",
    "continuing_subword_prefix": null,
    "end_of_word_suffix": "</w>",
    "fuse_unk": false,
    "vocab": {
      "[PAD]": 0,
      "[UNK]": 1,
      "[BOS]": 2,
      "[EOS]": 3,
      "!": 4,
      "#": 5,
      "$": 6,
      "%": 7,
      "&": 8,
      "'": 9,
      "*": 10,
      "+": 11,
      ",": 12,
      "-": 13,
      ".": 14,
      "/": 15,
      "0": 16,
      "1": 17,
      "2": 18,
      "3": 19,
      "4": 20,
      "5": 21,
      "6": 22,
      "7": 23,
      "8": 24,
      "9": 25,
      ":": 26,
      "=": 27,
      ">": 28,
      "?": 29,
      "@": 30,
      "_": 31,
      "a": 32,
      "b": 33,
      "c": 34,
      "d": 35,
      "e": 36,
      "f": 37,
      "g": 38,
      "h": 39,
      "i": 40,
      "j": 41,
      "k": 42,
      "l": 43,
      "m": 44,
      "n": 45,
      "o": 46,
      "p": 47,
      "q": 48,
      "r": 49,
      "s": 50,
      "t": 51,
      "u": 52,
      "v": 53,
      "w": 54,
      "x": 55,
      "y": 56,
      "z": 57,
      "s</w>": 58,
      "o</w>": 59,
      "e</w>": 60,
      "y</w>": 61,
      "g</w>": 62,
      "n</w>": 63,
      "h</w>": 64,
      "d</w>": 65,
      "p</w>": 66,
      "r</w>": 67,
      "t</w>": 68,
      "w</w>": 69,
      "l</w>": 70,
      "c</w>": 71,
      "k</w>": 72,
      "a</w>": 73,
      "m</w>": 74,
      "x</w>": 75,
      "7</w>": 76,
      "f</w>": 77,
      "u</w>": 78,
      "?</w>": 79,
      "b</w>": 80,
      "v</w>": 81,
      "i</w>": 82,
      "j</w>": 83,
      "z</w>": 84,
      "*</w>": 85,
      "&</w>": 86,
      "+</w>": 87,
      "1</w>": 88,
      "></w>": 89,
      "2</w>": 90,
      "!</w>": 91,
      "q</w>": 92,
      "9</w>": 93,
      "-</w>": 94,
      "@</w>": 95,
      "/</w>": 96,
      "4</w>": 97,
      ",</w>": 98,
      "8</w>": 99,
      "$</w>": 100,
      "#</w>": 101,
      "%</w>": 102,
      "5</w>": 103,
      ".</w>": 104,
      ":</w>": 105,
      "=</w>": 106,
      "6</w>": 107,
      "0</w>": 108,
      "'</w>": 109,
      "3</w>": 110,
      "_</w>": 111,
      "in": 112,
      "ing</w>": 113,
      "th": 114,
      "it": 115,
      "an": 116,
      "on</w>": 117,
      "ar": 118,
      "in</w>": 119,
      "of</w>": 120,
      "the</w>": 121,
      "ro": 122,
      "re": 123,
      "an</w>": 124,
      "er</w>": 125,
      "st": 126,
      "wit": 127,
      "with</w>": 128,
      "and</w>": 129,
      "le</w>": 130,
      "is</w>": 131,
      "la": 132,
      "ra": 133,
      "ou": 134,
      "al": 135,
      "ding</w>": 136,
      "es</w>": 137,
      "at</w>": 138,
      "er": 139,
      "man</w>": 140,
      "ed</w>": 141,
      "lo": 142,
      "at": 143,
      "ho": 144,
      "to": 145,
      "bo": 146,
      "to</w>": 147,
      "en</w>": 148,
      "si": 149,
      "el": 150,
      "ri": 151,
      "do": 152,
      "co": 153,
      "en": 154,
      "ea": 155,
      "il": 156,
      "et</w>": 157,
      "ting</w>": 158,
      "ch": 159,
      "pla": 160,
      "all</w>": 161,
      "sit": 162,
      "ir": 163,
      "ck</w>": 164,
      "ta": 165,
      "ba": 166,
      "wh": 167,
      "ple</w>": 168,
      "wo": 169,
      "ur": 170,
      "ch</w>": 171,
      "sitting</w>": 172,
      "tw": 173,
      "pe": 174,
      "ge</w>": 175,
      "stan": 176,
      "two</w>": 177,
      "king</w>": 178,
      "up</w>": 179,
      "sk": 180,
      "bu": 181,
      "ne": 182,
      "ite</w>": 183,
      "are</w>": 184,
      "ying</w>": 185,
      "standing</w>": 186,
      "tra": 187,
      "peo": 188,
      "people</w>": 189,
      "boar": 190,
      "so": 191,
      "it</w>": 192,
      "me</w>": 193,
      "ic": 194,
      "oun": 195,
      "se": 196,
      "fo": 197,
      "un": 198,
      "de</w>": 199,
      "be": 200,
      "se</w>": 201,
      "tab": 202,
      "roo": 203,
      "wn</w>": 204,
      "xt</w>": 205,
      "next</w>": 206,
      "room</w>": 207,
      "white</w>": 208,
      "ff": 209,
      "woman</w>": 210,
      "ca": 211,
      "gro": 212,
      "ck": 213,
      "on": 214,
      "par": 215,
      "li": 216,
      "sh": 217,
      "hol": 218,
      "red</w>": 219,
      "stre": 220,
      "top</w>": 221,
      "side</w>": 222,
      "ear</w>": 223,
      "ts</w>": 224,
      "table</w>": 225,
      "as</w>": 226,
      "street</w>": 227,
      "per": 228,
      "fro": 229,
      "de": 230,
      "board</w>": 231,
      "ds</w>": 232,
      "ss</w>": 233,
      "gra": 234,
      "that</w>": 235,
      "po": 236,
      "ball</w>": 237,
      "holding</w>": 238,
      "ve": 239,
      "ir</w>": 240,
      "fi": 241,
      "wal": 242,
      "sm": 243,
      "te</w>": 244,
      "pa": 245,
      "ther</w>": 246,
      "son</w>": 247,
      "ti": 248,
      "lar": 249,
      "nt</w>": 250,
      "person</w>": 251,
      "cou": 252,
      "large</w>": 253,
      "clo": 254,
      "some</w>": 255,
      "pi": 256,
      "ers</w>": 257,
      "loo": 258,
      "wa": 259,
      "no": 260,
      "mo": 261,
      "ten": 262,
      "lu": 263,
      "wat": 264,
      "down</w>": 265,
      "ter</w>": 266,
      "ru": 267,
      "by</w>": 268,
      "ss": 269,
      "gh": 270,
      "ce</w>": 271,
      "di": 272,
      "eld</w>": 273,
      "group</w>": 274,
      "sur": 275,
      "field</w>": 276,
      "ve</w>": 277,
      "sno": 278,
      "ma": 279,
      "um": 280,
      "small</w>": 281,
      "ga": 282,
      "tenn": 283,
      "tennis</w>": 284,
      "pho": 285,
      "ke</w>": 286,
      "bla": 287,
      "front</w>": 288,
      "sig": 289,
      "near</w>": 290,
      "his</w>": 291,
      "ge": 292,
      "black</w>": 293,
      "dog</w>": 294,
      "han": 295,
      "skat": 296,
      "train</w>": 297,
      "ree</w>": 298,
      "plate</w>": 299,
      "each</w>": 300,
      "dy</w>": 301,
      "win": 302,
      "riding</w>": 303,
      "lan": 304,
      "le": 305,
      "kit": 306,
      "youn": 307,
      "ran": 308,
      "other</w>": 309,
      "ele": 310,
      "young</w>": 311,
      "cat</w>": 312,
      "pu": 313,
      "od</w>": 314,
      "les</w>": 315,
      "water</w>": 316,
      "hor": 317,
      "ving</w>": 318,
      "me": 319,
      "buil": 320,
      "gre": 321,
      "men</w>": 322,
      "base": 323,
      "sto": 324,
      "baseball</w>": 325,
      "whi": 326,
      "fri": 327,
      "der</w>": 328,
      "bath": 329,
      "the": 330,
      "ll": 331,
      "gi": 332,
      "com": 333,
      "play": 334,
      "air</w>": 335,
      "car": 336,
      "has</w>": 337,
      "playing</w>": 338,
      "ver</w>": 339,
      "st</w>": 340,
      "ked</w>": 341,
      "while</w>": 342,
      "walking</w>": 343,
      "skate": 344,
      "sign</w>": 345,
      "ere</w>": 346,
      "air": 347,
      "bathroom</w>": 348,
      "ad</w>": 349,
      "plan": 350,
      "zz": 351,
      "gs</w>": 352,
      "ee": 353,
      "pp": 354,
      "yc": 355,
      "blu": 356,
      "one</w>": 357,
      "surf": 358,
      "blue</w>": 359,
      "we": 360,
      "pizz": 361,
      "vi": 362,
      "kitch": 363,
      "ure</w>": 364,
      "kitchen</w>": 365,
      "food</w>": 366,
      "out": 367,
      "bro": 368,
      "bre": 369,
      "ink</w>": 370,
      "pic": 371,
      "grass</w>": 372,
      "sho": 373,
      "out</w>": 374,
      "bus</w>": 375,
      "there</w>": 376,
      "bi": 377,
      "green</w>": 378,
      "gira": 379,
      "giraff": 380,
      "ght</w>": 381,
      "pizza</w>": 382,
      "looking</w>": 383,
      "parked</w>": 384,
      "building</w>": 385,
      "wi": 386,
      "lying</w>": 387,
      "bed</w>": 388,
      "cro": 389,
      "su": 390,
      "moto": 391,
      "snow</w>": 392,
      "eat": 393,
      "phon": 394,
      "und</w>": 395,
      "gh</w>": 396,
      "thro": 397,
      "low</w>": 398,
      "con": 399,
      "ity</w>": 400,
      "aring</w>": 401,
      "te": 402,
      "ben": 403,
      "beach</w>": 404,
      "road</w>": 405,
      "cu": 406,
      "ver": 407,
      "toil": 408,
      "phan": 409,
      "elephan": 410,
      "couple</w>": 411,
      "ses</w>": 412,
      "three</w>": 413,
      "gir": 414,
      "boy</w>": 415,
      "for</w>": 416,
      "ral</w>": 417,
      "ground</w>": 418,
      "woo": 419,
      "cks</w>": 420,
      "cyc": 421,
      "pict": 422,
      "ol": 423,
      "motor": 424,
      "toilet</w>": 425,
      "clock</w>": 426,
      "rt</w>": 427,
      "city</w>": 428,
      "ks</w>": 429,
      "den</w>": 430,
      "flying</w>": 431,
      "phone</w>": 432,
      "plane</w>": 433,
      "umbre": 434,
      "motorcyc": 435,
      "her</w>": 436,
      "lap": 437,
      "wearing</w>": 438,
      "gla": 439,
      "fu": 440,
      "tle</w>": 441,
      "player</w>": 442,
      "skateboard</w>": 443,
      "bir": 444,
      "chil": 445,
      "irt</w>": 446,
      "game</w>": 447,
      "eb": 448,
      "over</w>": 449,
      "seve": 450,
      "several</w>": 451,
      "zeb": 452,
      "compu": 453,
      "sh</w>": 454,
      "girl</w>": 455,
      "laying</w>": 456,
      "from</w>": 457,
      "way</w>": 458,
      "sits</w>": 459,
      "are": 460,
      "wer</w>": 461,
      "flo": 462,
      "ound</w>": 463,
      "its</w>": 464,
      "wooden</w>": 465,
      "ugh</w>": 466,
      "picture</w>": 467,
      "windo": 468,
      "ic</w>": 469,
      "bench</w>": 470,
      "ce": 471,
      "bear</w>": 472,
      "sa": 473,
      "ws</w>": 474,
      "rea": 475,
      "tru": 476,
      "for": 477,
      "area</w>": 478,
      "ski": 479,
      "laptop</w>": 480,
      "cake</w>": 481,
      "led</w>": 482,
      "op": 483,
      "their</w>": 484,
      "through</w>": 485,
      "tting</w>": 486,
      "snow": 487,
      "or</w>": 488,
      "around</w>": 489,
      "fris": 490,
      "eating</w>": 491,
      "yel": 492,
      "horse</w>": 493,
      "des": 494,
      "brown</w>": 495,
      "yellow</w>": 496,
      "ire</w>": 497,
      "frisbe": 498,
      "fa": 499,
      "computer</w>": 500,
      "ted</w>": 501,
      "and": 502,
      "frisbee</w>": 503,
      "ly</w>": 504,
      "sink</w>": 505,
      "al</w>": 506,
      "giraffe</w>": 507,
      "sc": 508,
      "tre": 509,
      "man": 510,
      "outside</w>": 511,
      "walk</w>": 512,
      "qu": 513,
      "ice</w>": 514,
      "ban": 515,
      "living</w>": 516,
      "truck</w>": 517,
      "ffe": 518,
      "dre": 519,
      "ty</w>": 520,
      "ging</w>": 521,
      "ind</w>": 522,
      "window</w>": 523,
      "ew</w>": 524,
      "back": 525,
      "wing</w>": 526,
      "desk</w>": 527,
      "bri": 528,
      "close</w>": 529,
      "tree</w>": 530,
      "'s</w>": 531,
      "old</w>": 532,
      "motorcycle</w>": 533,
      "lla</w>": 534,
      "car</w>": 535,
      "vered</w>": 536,
      "umbrella</w>": 537,
      "covered</w>": 538,
      "trees</w>": 539,
      "coun": 540,
      "ion</w>": 541,
      "fil": 542,
      "park</w>": 543,
      "open</w>": 544,
      "wall</w>": 545,
      "very</w>": 546,
      "pe</w>": 547,
      "ll</w>": 548,
      "mi": 549,
      "cel": 550,
      "da": 551,
      "hi": 552,
      "sing</w>": 553,
      "elephant</w>": 554,
      "many</w>": 555,
      "lit": 556,
      "hind</w>": 557,
      "ching</w>": 558,
      "banan": 559,
      "gu": 560,
      "cket</w>": 561,
      "lin": 562,
      "this</w>": 563,
      "bow": 564,
      "bun": 565,
      "behind</w>": 566,
      "cti": 567,
      "cat": 568,
      "oran": 569,
      "ent</w>": 570,
      "wave</w>": 571,
      "filled</w>": 572,
      "under</w>": 573,
      "light</w>": 574,
      "ps</w>": 575,
      "little</w>": 576,
      "rs</w>": 577,
      "dis": 578,
      "em": 579,
      "stop</w>": 580,
      "dd": 581,
      "ls</w>": 582,
      "hea": 583,
      "court</w>": 584,
      "ima": 585,
      "din": 586,
      "fire</w>": 587,
      "run": 588,
      "ves</w>": 589,
      "pre": 590,
      "fen": 591,
      "colo": 592,
      "sky</w>": 593,
      "stat": 594,
      "ni": 595,
      "into</w>": 596,
      "va": 597,
      "toge": 598,
      "together</w>": 599,
      "ping</w>": 600,
      "sta": 601,
      "child</w>": 602,
      "ha": 603,
      "moun": 604,
      "shee": 605,
      "sand": 606,
      "ded</w>": 607,
      "ches</w>": 608,
      "kite</w>": 609,
      "pped</w>": 610,
      "boat</w>": 611,
      "ys</w>": 612,
      "back</w>": 613,
      "surfboard</w>": 614,
      "nu": 615,
      "sandwi": 616,
      "floo": 617,
      "day</w>": 618,
      "mu": 619,
      "dri": 620,
      "go": 621,
      "tri": 622,
      "inside</w>": 623,
      "background</w>": 624,
      "tables</w>": 625,
      "ns</w>": 626,
      "dou": 627,
      "chair</w>": 628,
      "skis</w>": 629,
      "mir": 630,
      "bat</w>": 631,
      "du": 632,
      "view</w>": 633,
      "bowl</w>": 634,
      "stands</w>": 635,
      "big</w>": 636,
      "sheep</w>": 637,
      "ke": 638,
      "mirro": 639,
      "some": 640,
      "photo</w>": 641,
      "bird</w>": 642,
      "stu": 643,
      "ra</w>": 644,
      "bunch</w>": 645,
      "couch</w>": 646,
      "oce": 647,
      "ocean</w>": 648,
      "hil": 649,
      "hy": 650,
      "glass</w>": 651,
      "shirt</w>": 652,
      "ddy</w>": 653,
      "lon": 654,
      "cell</w>": 655,
      "sses</w>": 656,
      "hyd": 657,
      "traff": 658,
      "ction</w>": 659,
      "traffic</w>": 660,
      "hydran": 661,
      "ry</w>": 662,
      "side": 663,
      "wers</w>": 664,
      "vege": 665,
      "airplane</w>": 666,
      "zebra</w>": 667,
      "hand</w>": 668,
      "mirror</w>": 669,
      "hydrant</w>": 670,
      "ter": 671,
      "fence</w>": 672,
      "cross</w>": 673,
      "dge</w>": 674,
      "ff</w>": 675,
      "col": 676,
      "play</w>": 677,
      "teddy</w>": 678,
      "counter</w>": 679,
      "women</w>": 680,
      "boo": 681,
      "ats</w>": 682,
      "sandwich</w>": 683,
      "ble</w>": 684,
      "jum": 685,
      "orange</w>": 686,
      "ssy</w>": 687,
      "rent</w>": 688,
      "tu": 689,
      "another</w>": 690,
      "sidewalk</w>": 691,
      "tro": 692,
      "diffe": 693,
      "door</w>": 694,
      "pie": 695,
      "tain": 696,
      "different</w>": 697,
      "ner</w>": 698,
      "ddle</w>": 699,
      "ong</w>": 700,
      "lot</w>": 701,
      "stand</w>": 702,
      "flowers</w>": 703,
      "sl": 704,
      "ment</w>": 705,
      "lea": 706,
      "fru": 707,
      "floor</w>": 708,
      "tall</w>": 709,
      "mer": 710,
      "tracks</w>": 711,
      "ouse</w>": 712,
      "iling</w>": 713,
      "ard</w>": 714,
      "horses</w>": 715,
      "giraffes</w>": 716,
      "cars</w>": 717,
      "skateboar": 718,
      "vase</w>": 719,
      "ki": 720,
      "parking</w>": 721,
      "eng": 722,
      "head</w>": 723,
      "tower</w>": 724,
      "our</w>": 725,
      "ets</w>": 726,
      "tie</w>": 727,
      "racket</w>": 728,
      "baby</w>": 729,
      "pass": 730,
      "plat": 731,
      "ful</w>": 732,
      "sit</w>": 733,
      "vegetables</w>": 734,
      "bot": 735,
      "off</w>": 736,
      "ras</w>": 737,
      "ars</w>": 738,
      "being</w>": 739,
      "dr": 740,
      "grassy</w>": 741,
      "fe": 742,
      "graz": 743,
      "hill</w>": 744,
      "slo": 745,
      "zebras</w>": 746,
      "tain</w>": 747,
      "elephants</w>": 748,
      "middle</w>": 749,
      "bananas</w>": 750,
      "ari": 751,
      "along</w>": 752,
      "pro": 753,
      "cor": 754,
      "full</w>": 755,
      "glasses</w>": 756,
      "ready</w>": 757,
      "bike</w>": 758,
      "tor</w>": 759,
      "station</w>": 760,
      "signs</w>": 761,
      "wor": 762,
      "her": 763,
      "ant</w>": 764,
      "kes</w>": 765,
      "als</w>": 766,
      "dirt</w>": 767,
      "rying</w>": 768,
      "ap": 769,
      "rac": 770,
      "image</w>": 771,
      "taking</w>": 772,
      "vari": 773,
      "vel": 774,
      "stuff": 775,
      "crow": 776,
      "four</w>": 777,
      "ous</w>": 778,
      "tal": 779,
      "bat": 780,
      "driving</w>": 781,
      "stuffed</w>": 782,
      "gga": 783,
      "ning</w>": 784,
      "des</w>": 785,
      "suit</w>": 786,
      "slope</w>": 787,
      "ggage</w>": 788,
      "mat": 789,
      "uring</w>": 790,
      "cl": 791,
      "il</w>": 792,
      "coo": 793,
      "mp</w>": 794,
      "piece</w>": 795,
      "abo": 796,
      "above</w>": 797,
      "ched</w>": 798,
      "airs</w>": 799,
      "skiing</w>": 800,
      "wine</w>": 801,
      "sso": 802,
      "bru": 803,
      "long</w>": 804,
      "gera": 805,
      "broc": 806,
      "mon": 807,
      "stri": 808,
      "ligh": 809,
      "cows</w>": 810,
      "across</w>": 811,
      "beside</w>": 812,
      "male</w>": 813,
      "refri": 814,
      "swin": 815,
      "coli</w>": 816,
      "grazing</w>": 817,
      "broccoli</w>": 818,
      "luggage</w>": 819,
      "travel": 820,
      "case</w>": 821,
      "ser": 822,
      "bic": 823,
      "refrigera": 824,
      "ven</w>": 825,
      "snowy</w>": 826,
      "set</w>": 827,
      "skate</w>": 828,
      "der": 829,
      "sp": 830,
      "wii</w>": 831,
      "them</w>": 832,
      "app": 833,
      "ani": 834,
      "refrigerator</w>": 835,
      "tele": 836,
      "during</w>": 837,
      "bicyc": 838,
      "hat</w>": 839,
      "hanging</w>": 840,
      "port</w>": 841,
      "per</w>": 842,
      "iting</w>": 843,
      "ski</w>": 844,
      "holds</w>": 845,
      "prepar": 846,
      "childre": 847,
      "fruit</w>": 848,
      "thing</w>": 849,
      "visi": 850,
      "children</w>": 851,
      "camer": 852,
      "hot</w>": 853,
      "camera</w>": 854,
      "dings</w>": 855,
      "doing</w>": 856,
      "pink</w>": 857,
      "mountain</w>": 858,
      "herd</w>": 859,
      "th</w>": 860,
      "display</w>": 861,
      "dogs</w>": 862,
      "key": 863,
      "emp": 864,
      "buildings</w>": 865,
      "mar": 866,
      "sun": 867,
      "double</w>": 868,
      "boards</w>": 869,
      "passeng": 870,
      "cow</w>": 871,
      "cc": 872,
      "deco": 873,
      "pull": 874,
      "pole</w>": 875,
      "pair</w>": 876,
      "donu": 877,
      "going</w>": 878,
      "corner</w>": 879,
      "remo": 880,
      "boats</w>": 881,
      "ges</w>": 882,
      "keyboard</w>": 883,
      "ces</w>": 884,
      "looks</w>": 885,
      "contro": 886,
      "empty</w>": 887,
      "watching</w>": 888,
      "lla": 889,
      "cutting</w>": 890,
      "oven</w>": 891,
      "kites</w>": 892,
      "res</w>": 893,
      "bus": 894,
      "elf</w>": 895,
      "track</w>": 896,
      "stove</w>": 897,
      "trick</w>": 898,
      "chairs</w>": 899,
      "posing</w>": 900,
      "llas</w>": 901,
      "smiling</w>": 902,
      "jumping</w>": 903,
      "umbrellas</w>": 904,
      "box</w>": 905,
      "televisi": 906,
      "cur": 907,
      "rest": 908,
      "be</w>": 909,
      "color": 910,
      "decora": 911,
      "paper</w>": 912,
      "tow": 913,
      "cab": 914,
      "talking</w>": 915,
      "television</w>": 916,
      "chee": 917,
      "socc": 918,
      "deo</w>": 919,
      "soccer</w>": 920,
      "sle": 921,
      "ine</w>": 922,
      "pit": 923,
      "suit": 924,
      "swinging</w>": 925,
      "crowd</w>": 926,
      "ket</w>": 927,
      "airport</w>": 928,
      "colorful</w>": 929,
      "traveling</w>": 930,
      "tv</w>": 931,
      "wood</w>": 932,
      "tub</w>": 933,
      "video</w>": 934,
      "topped</w>": 935,
      "bed": 936,
      "line</w>": 937,
      "fre": 938,
      "anim": 939,
      "various</w>": 940,
      "animals</w>": 941,
      "ons</w>": 942,
      "ans</w>": 943,
      "surf</w>": 944,
      "using</w>": 945,
      "clu": 946,
      "body</w>": 947,
      "getting</w>": 948,
      "slee": 949,
      "birds</w>": 950,
      "lady</w>": 951,
      "fla": 952,
      "who</w>": 953,
      "dress": 954,
      "plates</w>": 955,
      "ings</w>": 956,
      "ja": 957,
      "contain": 958,
      "pain": 959,
      "pat": 960,
      "hit</w>": 961,
      "gain": 962,
      "ters</w>": 963,
      "again": 964,
      "tal</w>": 965,
      "against</w>": 966,
      "form</w>": 967,
      "quet</w>": 968,
      "ling</w>": 969,
      "lights</w>": 970,
      "house</w>": 971,
      "inter": 972,
      "ors</w>": 973,
      "ems</w>": 974,
      "photo": 975,
      "banana</w>": 976,
      "hal": 977,
      "guy</w>": 978,
      "oth": 979,
      "lots</w>": 980,
      "fe</w>": 981,
      "made</w>": 982,
      "carrying</w>": 983,
      "ms</w>": 984,
      "cabin": 985,
      "fore": 986,
      "waiting</w>": 987,
      "row</w>": 988,
      "mil": 989,
      "coffe": 990,
      "brick</w>": 991,
      "coffee</w>": 992,
      "cked</w>": 993,
      "sed</w>": 994,
      "motorcycles</w>": 995,
      "someone</w>": 996,
      "river</w>": 997,
      "cup</w>": 998,
      "cheese</w>": 999,
      "night</w>": 1000,
      "bedroom</w>": 1001,
      "shes</w>": 1002,
      "bears</w>": 1003,
      "shor": 1004,
      "dul": 1005,
      "something</w>": 1006,
      "adul": 1007,
      "re</w>": 1008,
      "resta": 1009,
      "ming</w>": 1010,
      "restaur": 1011,
      "cho": 1012,
      "cker</w>": 1013,
      "ft</w>": 1014,
      "restaurant</w>": 1015,
      "grap": 1016,
      "ab": 1017,
      "tur": 1018,
      "players</w>": 1019,
      "num": 1020,
      "roun": 1021,
      "ced</w>": 1022,
      "ssing</w>": 1023,
      "shower</w>": 1024,
      "meat</w>": 1025,
      "drin": 1026,
      "clou": 1027,
      "remote</w>": 1028,
      "home</w>": 1029,
      "skateboarder</w>": 1030,
      "runway</w>": 1031,
      "na": 1032,
      "decker</w>": 1033,
      "ken</w>": 1034,
      "face</w>": 1035,
      "section</w>": 1036,
      "metal</w>": 1037,
      "bicycle</w>": 1038,
      "racquet</w>": 1039,
      "book</w>": 1040,
      "skier</w>": 1041,
      "snowboard</w>": 1042,
      "off": 1043,
      "about</w>": 1044,
      "mic": 1045,
      "cher</w>": 1046,
      "high</w>": 1047,
      "items</w>": 1048,
      "running</w>": 1049,
      "scre": 1050,
      "carro": 1051,
      "surfer</w>": 1052,
      "jet</w>": 1053,
      "enclo": 1054,
      "past": 1055,
      "surroun": 1056,
      "ex": 1057,
      "slic": 1058,
      "pil": 1059,
      "ramp</w>": 1060,
      "ber</w>": 1061,
      "busy</w>": 1062,
      "sha": 1063,
      "che": 1064,
      "outh</w>": 1065,
      "pur": 1066,
      "micro": 1067,
      "surfing</w>": 1068,
      "fur": 1069,
      "colored</w>": 1070,
      "hands</w>": 1071,
      "ins</w>": 1072,
      "like</w>": 1073,
      "shing</w>": 1074,
      "passenger</w>": 1075,
      "dressed</w>": 1076,
      "hel": 1077,
      "age</w>": 1078,
      "snowboar": 1079,
      "sil": 1080,
      "ty": 1081,
      "dough": 1082,
      "intersection</w>": 1083,
      "monit": 1084,
      "doughnu": 1085,
      "mea": 1086,
      "spo": 1087,
      "tray</w>": 1088,
      "cut</w>": 1089,
      "mouth</w>": 1090,
      "lean": 1091,
      "tat": 1092,
      "bag</w>": 1093,
      "kni": 1094,
      "imal</w>": 1095,
      "photograp": 1096,
      "uni": 1097,
      "ju": 1098,
      "he</w>": 1099,
      "animal</w>": 1100,
      "or": 1101,
      "him</w>": 1102,
      "suitcase</w>": 1103,
      "sin": 1104,
      "screen</w>": 1105,
      "dar": 1106,
      "preparing</w>": 1107,
      "slice</w>": 1108,
      "zo": 1109,
      "sci": 1110,
      "lar</w>": 1111,
      "shown</w>": 1112,
      "store</w>": 1113,
      "bridge</w>": 1114,
      "batter</w>": 1115,
      "ol</w>": 1116,
      "sure</w>": 1117,
      "bottle</w>": 1118,
      "half</w>": 1119,
      "je": 1120,
      "rides</w>": 1121,
      "hic": 1122,
      "gray</w>": 1123,
      "scisso": 1124,
      "vehic": 1125,
      "pulling</w>": 1126,
      "controll": 1127,
      "ny</w>": 1128,
      "look</w>": 1129,
      "zoo</w>": 1130,
      "over": 1131,
      "place</w>": 1132,
      "gar": 1133,
      "bea": 1134,
      "ci": 1135,
      "sleeping</w>": 1136,
      "scissors</w>": 1137,
      "number</w>": 1138,
      "donuts</w>": 1139,
      "een</w>": 1140,
      "jo": 1141,
      "dark</w>": 1142,
      "ures</w>": 1143,
      "enclosure</w>": 1144,
      "ad": 1145,
      "surrounded</w>": 1146,
      "sau": 1147,
      "mul": 1148,
      "foo": 1149,
      "kids</w>": 1150,
      "brush</w>": 1151,
      "hu": 1152,
      "display": 1153,
      "knife</w>": 1154,
      "til": 1155,
      "sand</w>": 1156,
      "stic": 1157,
      "min": 1158,
      "lies</w>": 1159,
      "pes</w>": 1160,
      "tween</w>": 1161,
      "between</w>": 1162,
      "jacket</w>": 1163,
      "showing</w>": 1164,
      "lined</w>": 1165,
      "bask": 1166,
      "leaning</w>": 1167,
      "microwave</w>": 1168,
      "decorated</w>": 1169,
      "adult</w>": 1170,
      "toy</w>": 1171,
      "ger</w>": 1172,
      "nit": 1173,
      "lic</w>": 1174,
      "coming</w>": 1175,
      "carrots</w>": 1176,
      "mouse</w>": 1177,
      "scen": 1178,
      "can</w>": 1179,
      "walks</w>": 1180,
      "meal</w>": 1181,
      "cabinets</w>": 1182,
      "pile</w>": 1183,
      "silver</w>": 1184,
      "do</w>": 1185,
      "bal": 1186,
      "lake</w>": 1187,
      "stic</w>": 1188,
      "boys</w>": 1189,
      "bread</w>": 1190,
      "few</w>": 1191,
      "shelf</w>": 1192,
      "dra": 1193,
      "ned</w>": 1194,
      "forest</w>": 1195,
      "ved</w>": 1196,
      "seat</w>": 1197,
      "buses</w>": 1198,
      "bran": 1199,
      "tains</w>": 1200,
      "skiers</w>": 1201,
      "lit</w>": 1202,
      "older</w>": 1203,
      "purple</w>": 1204,
      "ated</w>": 1205,
      "atta": 1206,
      "blan": 1207,
      "past</w>": 1208,
      "oranges</w>": 1209,
      "bar": 1210,
      "ssi": 1211,
      "neat": 1212,
      "swing</w>": 1213,
      "oes</w>": 1214,
      "late</w>": 1215,
      "ged</w>": 1216,
      "furnit": 1217,
      "hit": 1218,
      "ate</w>": 1219,
      "furniture</w>": 1220,
      "ped</w>": 1221,
      "grey</w>": 1222,
      "girls</w>": 1223,
      "hair</w>": 1224,
      "ders</w>": 1225,
      "ards</w>": 1226,
      "waves</w>": 1227,
      "planes</w>": 1228,
      "ste": 1229,
      "kid</w>": 1230,
      "cre": 1231,
      "cle": 1232,
      "shi": 1233,
      "outdoor</w>": 1234,
      "gle</w>": 1235,
      "ler</w>": 1236,
      "stone</w>": 1237,
      "have</w>": 1238,
      "pping</w>": 1239,
      "throwing</w>": 1240,
      "cloudy</w>": 1241,
      "resting</w>": 1242,
      "lush</w>": 1243,
      "phones</w>": 1244,
      "displayed</w>": 1245,
      "pol": 1246,
      "flower</w>": 1247,
      "elec": 1248,
      "attached</w>": 1249,
      "choco": 1250,
      "drink</w>": 1251,
      "bl": 1252,
      "statu": 1253,
      "monitor</w>": 1254,
      "under": 1255,
      "photograph</w>": 1256,
      "rain</w>": 1257,
      "qui": 1258,
      "making</w>": 1259,
      "san": 1260,
      "crossing</w>": 1261,
      "chocolate</w>": 1262,
      "try</w>": 1263,
      "doors</w>": 1264,
      "lad</w>": 1265,
      "onto</w>": 1266,
      "yard</w>": 1267,
      "pan": 1268,
      "time</w>": 1269,
      "tops</w>": 1270,
      "ents</w>": 1271,
      "cra": 1272,
      "stru": 1273,
      "fork</w>": 1274,
      "dining</w>": 1275,
      "arm</w>": 1276,
      "inclu": 1277,
      "tly</w>": 1278,
      "ell</w>": 1279,
      "painted</w>": 1280,
      "stee": 1281,
      "kers</w>": 1282,
      "carri": 1283,
      "drinking</w>": 1284,
      "scene</w>": 1285,
      "meter</w>": 1286,
      "els</w>": 1287,
      "hitting</w>": 1288,
      "rocks</w>": 1289,
      "pan</w>": 1290,
      "uti": 1291,
      "thday</w>": 1292,
      "birthday</w>": 1293,
      "cats</w>": 1294,
      "salad</w>": 1295,
      "seen</w>": 1296,
      "market</w>": 1297,
      "spe": 1298,
      "stra": 1299,
      "rail": 1300,
      "watch</w>": 1301,
      "ob": 1302,
      "fruits</w>": 1303,
      "apples</w>": 1304,
      "no</w>": 1305,
      "ating</w>": 1306,
      "ens</w>": 1307,
      "female</w>": 1308,
      "ert</w>": 1309,
      "walls</w>": 1310,
      "office</w>": 1311,
      "tooth": 1312,
      "fle": 1313,
      "perfor": 1314,
      "cand": 1315,
      "towards</w>": 1316,
      "zed</w>": 1317,
      "wil": 1318,
      "pub": 1319,
      "windows</w>": 1320,
      "public</w>": 1321,
      "dish</w>": 1322,
      "books</w>": 1323,
      "apple</w>": 1324,
      "fries</w>": 1325,
      "sunny</w>": 1326,
      "fee": 1327,
      "met</w>": 1328,
      "cell": 1329,
      "plastic</w>": 1330,
      "edge</w>": 1331,
      "bikes</w>": 1332,
      "clean</w>": 1333,
      "beauti": 1334,
      "bright</w>": 1335,
      "tee": 1336,
      "sted</w>": 1337,
      "squ": 1338,
      "inten": 1339,
      "rin": 1340,
      "sun</w>": 1341,
      "been</w>": 1342,
      "stopped</w>": 1343,
      "pictures</w>": 1344,
      "blanket</w>": 1345,
      "multi": 1346,
      "catch</w>": 1347,
      "less</w>": 1348,
      "leaves</w>": 1349,
      "can": 1350,
      "ring</w>": 1351,
      "self</w>": 1352,
      "surfboards</w>": 1353,
      "tomat": 1354,
      "tion</w>": 1355,
      "teeth</w>": 1356,
      "rail</w>": 1357,
      "setting</w>": 1358,
      "asso": 1359,
      "dress</w>": 1360,
      "go</w>": 1361,
      "ary</w>": 1362,
      "moving</w>": 1363,
      "town</w>": 1364,
      "onal</w>": 1365,
      "tment</w>": 1366,
      "clear</w>": 1367,
      "enjo": 1368,
      "beautiful</w>": 1369,
      "neath</w>": 1370,
      "assor": 1371,
      "ten</w>": 1372,
      "mountains</w>": 1373,
      "working</w>": 1374,
      "statue</w>": 1375,
      "tel</w>": 1376,
      "ride</w>": 1377,
      "snowboarder</w>": 1378,
      "refle": 1379,
      "cing</w>": 1380,
      "underneath</w>": 1381,
      "donut</w>": 1382,
      "tran": 1383,
      "branch</w>": 1384,
      "ering</w>": 1385,
      "platform</w>": 1386,
      "trying</w>": 1387,
      "sting</w>": 1388,
      "ster</w>": 1389,
      "uniform</w>": 1390,
      "brea": 1391,
      "rock</w>": 1392,
      "ker</w>": 1393,
      "bath</w>": 1394,
      "eat</w>": 1395,
      "shot</w>": 1396,
      "helmet</w>": 1397,
      "ct</w>": 1398,
      "mb": 1399,
      "tea": 1400,
      "end</w>": 1401,
      "slices</w>": 1402,
      "stance</w>": 1403,
      "tered</w>": 1404,
      "sts</w>": 1405,
      "country</w>": 1406,
      "loa": 1407,
      "nic</w>": 1408,
      "thered</w>": 1409,
      "ture</w>": 1410,
      "having</w>": 1411,
      "nice</w>": 1412,
      "cen": 1413,
      "um</w>": 1414,
      "controller</w>": 1415,
      "shows</w>": 1416,
      "mes</w>": 1417,
      "fire": 1418,
      "pieces</w>": 1419,
      "up": 1420,
      "placed</w>": 1421,
      "computers</w>": 1422,
      "shore</w>": 1423,
      "motor</w>": 1424,
      "skateboarding</w>": 1425,
      "sel": 1426,
      "dire": 1427,
      "spa": 1428,
      "pers</w>": 1429,
      "perched</w>": 1430,
      "sof": 1431,
      "cellphone</w>": 1432,
      "poin": 1433,
      "famil": 1434,
      "tar": 1435,
      "basket</w>": 1436,
      "eaten</w>": 1437,
      "pitch</w>": 1438,
      "path</w>": 1439,
      "base</w>": 1440,
      "ine": 1441,
      "wet</w>": 1442,
      "art</w>": 1443,
      "catcher</w>": 1444,
      "ally</w>": 1445,
      "cart</w>": 1446,
      "surfa": 1447,
      "passing</w>": 1448,
      "sty": 1449,
      "ances</w>": 1450,
      "iny</w>": 1451,
      "hotel</w>": 1452,
      "plant</w>": 1453,
      "police</w>": 1454,
      "cooking</w>": 1455,
      "moder": 1456,
      "vases</w>": 1457,
      "ey": 1458,
      "reading</w>": 1459,
      "appli": 1460,
      "surface</w>": 1461,
      "chic": 1462,
      "sandy</w>": 1463,
      "family</w>": 1464,
      "am": 1465,
      "pizzas</w>": 1466,
      "varie": 1467,
      "cla": 1468,
      "doughnut</w>": 1469,
      "modern</w>": 1470,
      "vehicle</w>": 1471,
      "dinner</w>": 1472,
      "just</w>": 1473,
      "lap</w>": 1474,
      "lows</w>": 1475,
      "cakes</w>": 1476,
      "trains</w>": 1477,
      "post</w>": 1478,
      "they</w>": 1479,
      "roa": 1480,
      "ery</w>": 1481,
      "pot</w>": 1482,
      "tes</w>": 1483,
      "sauce</w>": 1484,
      "gri": 1485,
      "mac</w>": 1486,
      "brushing</w>": 1487,
      "tiled</w>": 1488,
      "bb": 1489,
      "laptops</w>": 1490,
      "types</w>": 1491,
      "roll": 1492,
      "topp": 1493,
      "beer</w>": 1494,
      "tou": 1495,
      "swi": 1496,
      "rice</w>": 1497,
      "right</w>": 1498,
      "pitcher</w>": 1499,
      "shed</w>": 1500,
      "potat": 1501,
      "lamp</w>": 1502,
      "tty</w>": 1503,
      "trun": 1504,
      "watches</w>": 1505,
      "ninten": 1506,
      "cases</w>": 1507,
      "nintendo</w>": 1508,
      "multiple</w>": 1509,
      "others</w>": 1510,
      "toppings</w>": 1511,
      "single</w>": 1512,
      "por": 1513,
      "para": 1514,
      "af": 1515,
      "engine</w>": 1516,
      "graff": 1517,
      "eg": 1518,
      "doughnuts</w>": 1519,
      "variety</w>": 1520,
      "del": 1521,
      "sub": 1522,
      "enjoying</w>": 1523,
      "mounted</w>": 1524,
      "graffit": 1525,
      "benches</w>": 1526,
      "fast</w>": 1527,
      "pep": 1528,
      "ries</w>": 1529,
      "plants</w>": 1530,
      "bowls</w>": 1531,
      "trucks</w>": 1532,
      "glo": 1533,
      "well</w>": 1534,
      "pack</w>": 1535,
      "fresh</w>": 1536,
      "jump</w>": 1537,
      "where</w>": 1538,
      "distance</w>": 1539,
      "passengers</w>": 1540,
      "hot": 1541,
      "xes</w>": 1542,
      "shap": 1543,
      "shop</w>": 1544,
      "performing</w>": 1545,
      "tarmac</w>": 1546,
      "gathered</w>": 1547,
      "woods</w>": 1548,
      "graffiti</w>": 1549,
      "blo": 1550,
      "bott": 1551,
      "work</w>": 1552,
      "fly</w>": 1553,
      "bathtub</w>": 1554,
      "guys</w>": 1555,
      "pretty</w>": 1556,
      "appliances</w>": 1557,
      "dess": 1558,
      "mp": 1559,
      "gear</w>": 1560,
      "shoes</w>": 1561,
      "har": 1562,
      "cha": 1563,
      "cute</w>": 1564,
      "he": 1565,
      "vin": 1566,
      "pen</w>": 1567,
      "curb</w>": 1568,
      "candles</w>": 1569,
      "tricks</w>": 1570,
      "flies</w>": 1571,
      "shel": 1572,
      "hand": 1573,
      "pede": 1574,
      "cal": 1575,
      "dir": 1576,
      "left</w>": 1577,
      "et": 1578,
      "med</w>": 1579,
      "containing</w>": 1580,
      "dock</w>": 1581,
      "scho": 1582,
      "kne": 1583,
      "tage</w>": 1584,
      "fenced</w>": 1585,
      "equi": 1586,
      "arran": 1587,
      "clut": 1588,
      "carriage</w>": 1589,
      "chicken</w>": 1590,
      "five</w>": 1591,
      "cattle</w>": 1592,
      "serving</w>": 1593,
      "bottles</w>": 1594,
      "near": 1595,
      "dirty</w>": 1596,
      "take</w>": 1597,
      "smo": 1598,
      "feat": 1599,
      "pasture</w>": 1600,
      "fol": 1601,
      "electro": 1602,
      "bags</w>": 1603,
      "match</w>": 1604,
      "railroad</w>": 1605,
      "ber": 1606,
      "ions</w>": 1607,
      "stea": 1608,
      "school</w>": 1609,
      "poles</w>": 1610,
      "below</w>": 1611,
      "ump": 1612,
      "cial</w>": 1613,
      "ven": 1614,
      "concre": 1615,
      "feeding</w>": 1616,
      "nal</w>": 1617,
      "concrete</w>": 1618,
      "tive</w>": 1619,
      "tile</w>": 1620,
      "tic": 1621,
      "dding</w>": 1622,
      "mas</w>": 1623,
      "neck</w>": 1624,
      "ppy</w>": 1625,
      "perso": 1626,
      "steel</w>": 1627,
      "after</w>": 1628,
      "cloth": 1629,
      "drinks</w>": 1630,
      "cup": 1631,
      "id</w>": 1632,
      "bar</w>": 1633,
      "toothbrush</w>": 1634,
      "including</w>": 1635,
      "striped</w>": 1636,
      "wr": 1637,
      "oned</w>": 1638,
      "takes</w>": 1639,
      "mid</w>": 1640,
      "fireplace</w>": 1641,
      "pon": 1642,
      "control</w>": 1643,
      "sofa</w>": 1644,
      "op</w>": 1645,
      "pulled</w>": 1646,
      "vintage</w>": 1647,
      "pillows</w>": 1648,
      "shaped</w>": 1649,
      "dry</w>": 1650,
      "crowded</w>": 1651,
      "gg": 1652,
      "rack</w>": 1653,
      "smil": 1654,
      "urin": 1655,
      "boxes</w>": 1656,
      "she</w>": 1657,
      "center</w>": 1658,
      "den": 1659,
      "cooked</w>": 1660,
      "flat</w>": 1661,
      "sandwiches</w>": 1662,
      "posit": 1663,
      "wra": 1664,
      "served</w>": 1665,
      "alone</w>": 1666,
      "ckets</w>": 1667,
      "pment</w>": 1668,
      "fridge</w>": 1669,
      "space</w>": 1670,
      "serve</w>": 1671,
      "nearby</w>": 1672,
      "ley</w>": 1673,
      "high": 1674,
      "asi": 1675,
      "sou": 1676,
      "both</w>": 1677,
      "not</w>": 1678,
      "polar</w>": 1679,
      "obje": 1680,
      "catching</w>": 1681,
      "equipment</w>": 1682,
      "chur": 1683,
      "land</w>": 1684,
      "huge</w>": 1685,
      "boarding</w>": 1686,
      "dishes</w>": 1687,
      "pick": 1688,
      "reaching</w>": 1689,
      "busine": 1690,
      "style</w>": 1691,
      "crea": 1692,
      "feet</w>": 1693,
      "container</w>": 1694,
      "sinks</w>": 1695,
      "vehicles</w>": 1696,
      "beds</w>": 1697,
      "sliced</w>": 1698,
      "trunk</w>": 1699,
      "hou": 1700,
      "church</w>": 1701,
      "toa": 1702,
      "turn</w>": 1703,
      "surfers</w>": 1704,
      "ely</w>": 1705,
      "floating</w>": 1706,
      "bushes</w>": 1707,
      "which</w>": 1708,
      "que</w>": 1709,
      "profe": 1710,
      "professi": 1711,
      "van": 1712,
      "poses</w>": 1713,
      "bicycles</w>": 1714,
      "fin": 1715,
      "skateboards</w>": 1716,
      "sea": 1717,
      "away</w>": 1718,
      "round</w>": 1719,
      "suitcases</w>": 1720,
      "plays</w>": 1721,
      "cking</w>": 1722,
      "desk": 1723,
      "atop</w>": 1724,
      "taken</w>": 1725,
      "hole</w>": 1726,
      "giant</w>": 1727,
      "clothes</w>": 1728,
      "ron": 1729,
      "legs</w>": 1730,
      "rist": 1731,
      "asian</w>": 1732,
      "lly</w>": 1733,
      "pedestri": 1734,
      "pose</w>": 1735,
      "putting</w>": 1736,
      "cli": 1737,
      "wel</w>": 1738,
      "potatoes</w>": 1739,
      "professional</w>": 1740,
      "vel</w>": 1741,
      "chi": 1742,
      "sticking</w>": 1743,
      "tomatoes</w>": 1744,
      "prepares</w>": 1745,
      "cream</w>": 1746,
      "bur": 1747,
      "sli": 1748,
      "smiles</w>": 1749,
      "swim": 1750,
      "towel</w>": 1751,
      "liner</w>": 1752,
      "fal": 1753,
      "open": 1754,
      "bow</w>": 1755,
      "airplanes</w>": 1756,
      "offic": 1757,
      "hay</w>": 1758,
      "foods</w>": 1759,
      "let": 1760,
      "staring</w>": 1761,
      "run</w>": 1762,
      "same</w>": 1763,
      "tan": 1764,
      "but": 1765,
      "she": 1766,
      "show</w>": 1767,
      "cement</w>": 1768,
      "lays</w>": 1769,
      "sides</w>": 1770,
      "blen": 1771,
      "wild</w>": 1772,
      "bs</w>": 1773,
      "nch</w>": 1774,
      "figh": 1775,
      "ac": 1776,
      "commer": 1777,
      "trail</w>": 1778,
      "cabinet</w>": 1779,
      "dev": 1780,
      "spoon</w>": 1781,
      "lun": 1782,
      "christ": 1783,
      "foot</w>": 1784,
      "commercial</w>": 1785,
      "wire</w>": 1786,
      "od": 1787,
      "mother</w>": 1788,
      "painting</w>": 1789,
      "christmas</w>": 1790,
      "reflection</w>": 1791,
      "break": 1792,
      "kin": 1793,
      "whe": 1794,
      "shorts</w>": 1795,
      "eling</w>": 1796,
      "stain": 1797,
      "breakfast</w>": 1798,
      "stacked</w>": 1799,
      "toward</w>": 1800,
      "subway</w>": 1801,
      "xing</w>": 1802,
      "lone</w>": 1803,
      "shelves</w>": 1804,
      "get</w>": 1805,
      "square</w>": 1806,
      "arrow</w>": 1807,
      "backpack</w>": 1808,
      "mach": 1809,
      "cy</w>": 1810,
      "sty</w>": 1811,
      "french</w>": 1812,
      "dessert</w>": 1813,
      "sca": 1814,
      "wedding</w>": 1815,
      "cluttered</w>": 1816,
      "soup</w>": 1817,
      "scoo": 1818,
      "ties</w>": 1819,
      "pool</w>": 1820,
      "games</w>": 1821,
      "seated</w>": 1822,
      "docked</w>": 1823,
      "highway</w>": 1824,
      "van</w>": 1825,
      "throw</w>": 1826,
      "appe": 1827,
      "couches</w>": 1828,
      "wn": 1829,
      "flag</w>": 1830,
      "outdoors</w>": 1831,
      "sunglasses</w>": 1832,
      "umpire</w>": 1833,
      "swings</w>": 1834,
      "adults</w>": 1835,
      "spor": 1836,
      "business</w>": 1837,
      "blender</w>": 1838,
      "gate</w>": 1839,
      "stall</w>": 1840,
      "rug</w>": 1841,
      "shir": 1842,
      "hill": 1843,
      "swimming</w>": 1844,
      "ev": 1845,
      "ies</w>": 1846,
      "cloth</w>": 1847,
      "swe": 1848,
      "cts</w>": 1849,
      "pillow</w>": 1850,
      "controllers</w>": 1851,
      "drawn</w>": 1852,
      "cke": 1853,
      "cky</w>": 1854,
      "clocks</w>": 1855,
      "pen": 1856,
      "race</w>": 1857,
      "cour": 1858,
      "drives</w>": 1859,
      "garden</w>": 1860,
      "assortment</w>": 1861,
      "hotdog</w>": 1862,
      "ends</w>": 1863,
      "so</w>": 1864,
      "ation</w>": 1865,
      "sti": 1866,
      "ight</w>": 1867,
      "ments</w>": 1868,
      "team</w>": 1869,
      "pet</w>": 1870,
      "stairs</w>": 1871,
      "itary</w>": 1872,
      "scu": 1873,
      "restroom</w>": 1874,
      "fra": 1875,
      "au": 1876,
      "trail": 1877,
      "veg": 1878,
      "ban</w>": 1879,
      "military</w>": 1880,
      "desktop</w>": 1881,
      "hillside</w>": 1882,
      "kitten</w>": 1883,
      "onions</w>": 1884,
      "bun</w>": 1885,
      "fish</w>": 1886,
      "ledge</w>": 1887,
      "verti": 1888,
      "produ": 1889,
      "among</w>": 1890,
      "trash</w>": 1891,
      "constru": 1892,
      "facing</w>": 1893,
      "stainless</w>": 1894,
      "cted</w>": 1895,
      "eyes</w>": 1896,
      "lawn</w>": 1897,
      "eats</w>": 1898,
      "todd": 1899,
      "icking</w>": 1900,
      "wooded</w>": 1901,
      "jumps</w>": 1902,
      "cru": 1903,
      "does</w>": 1904,
      "flock</w>": 1905,
      "skies</w>": 1906,
      "nic": 1907,
      "oul": 1908,
      "ti</w>": 1909,
      "see</w>": 1910,
      "compe": 1911,
      "head": 1912,
      "vy</w>": 1913,
      "coat</w>": 1914,
      "cups</w>": 1915,
      "blur": 1916,
      "close": 1917,
      "sort</w>": 1918,
      "assorted</w>": 1919,
      "arms</w>": 1920,
      "partment</w>": 1921,
      "fore</w>": 1922,
      "fashi": 1923,
      "boarder</w>": 1924,
      "steps</w>": 1925,
      "down": 1926,
      "urban</w>": 1927,
      "things</w>": 1928,
      "rocky</w>": 1929,
      "rage</w>": 1930,
      "before</w>": 1931,
      "suits</w>": 1932,
      "temp": 1933,
      "adverti": 1934,
      "cir": 1935,
      "eggs</w>": 1936,
      "event</w>": 1937,
      "tted</w>": 1938,
      "lam": 1939,
      "reads</w>": 1940,
      "pointing</w>": 1941,
      "am</w>": 1942,
      "key</w>": 1943,
      "approa": 1944,
      "pel": 1945,
      "veggi": 1946,
      "tied</w>": 1947,
      "desert</w>": 1948,
      "stret": 1949,
      "says</w>": 1950,
      "ill</w>": 1951,
      "ctions</w>": 1952,
      "clouds</w>": 1953,
      "toddler</w>": 1954,
      "attemp": 1955,
      "dium</w>": 1956,
      "closeup</w>": 1957,
      "vers</w>": 1958,
      "gue</w>": 1959,
      "ket": 1960,
      "ceiling</w>": 1961,
      "fashioned</w>": 1962,
      "broken</w>": 1963,
      "glove</w>": 1964,
      "electronic</w>": 1965,
      "party</w>": 1966,
      "outf": 1967,
      "snowboarding</w>": 1968,
      "fan": 1969,
      "monitors</w>": 1970,
      "construction</w>": 1971,
      "closed</w>": 1972,
      "picnic</w>": 1973,
      "berries</w>": 1974,
      "landing</w>": 1975,
      "friends</w>": 1976,
      "electri": 1977,
      "rackets</w>": 1978,
      "bor": 1979,
      "lines</w>": 1980,
      "part</w>": 1981,
      "let</w>": 1982,
      "tan</w>": 1983,
      "curtain</w>": 1984,
      "arranged</w>": 1985,
      "floors</w>": 1986,
      "cture</w>": 1987,
      "what</w>": 1988,
      "parti": 1989,
      "wide</w>": 1990,
      "sk</w>": 1991,
      "cage</w>": 1992,
      "brushes</w>": 1993,
      "tit": 1994,
      "hold</w>": 1995,
      "pal": 1996,
      "rela": 1997,
      "pots</w>": 1998,
      "cross": 1999,
      "overlooking</w>": 2000,
      "rest</w>": 2001,
      "net</w>": 2002,
      "roof</w>": 2003,
      "type</w>": 2004,
      "fli": 2005,
      "us</w>": 2006,
      "anti": 2007,
      "lunch</w>": 2008,
      "botto": 2009,
      "new</w>": 2010,
      "vegetable</w>": 2011,
      "machine</w>": 2012,
      "star": 2013,
      "dies</w>": 2014,
      "kind</w>": 2015,
      "lls</w>": 2016,
      "sail": 2017,
      "mself</w>": 2018,
      "narrow</w>": 2019,
      "ripe</w>": 2020,
      "use</w>": 2021,
      "yer</w>": 2022,
      "skating</w>": 2023,
      "kneeling</w>": 2024,
      "pond</w>": 2025,
      "sale</w>": 2026,
      "beve": 2027,
      "colors</w>": 2028,
      "graze</w>": 2029,
      "indi": 2030,
      "overhead</w>": 2031,
      "fancy</w>": 2032,
      "ugh": 2033,
      "himself</w>": 2034,
      "bottom</w>": 2035,
      "ton</w>": 2036,
      "walk": 2037,
      "gets</w>": 2038,
      "commu": 2039,
      "pie</w>": 2040,
      "br": 2041,
      "racing</w>": 2042,
      "messy</w>": 2043,
      "free": 2044,
      "trailer</w>": 2045,
      "prac": 2046,
      "ze</w>": 2047,
      "plain</w>": 2048,
      "ship</w>": 2049,
      "rider</w>": 2050,
      "pasta</w>": 2051,
      "loaded</w>": 2052,
      "bra": 2053,
      "ward</w>": 2054,
      "sill</w>": 2055,
      "sunset</w>": 2056,
      "used</w>": 2057,
      "pants</w>": 2058,
      "appears</w>": 2059,
      "dow</w>": 2060,
      "peron": 2061,
      "object</w>": 2062,
      "ne</w>": 2063,
      "pea": 2064,
      "ines</w>": 2065,
      "eri": 2066,
      "book": 2067,
      "gen": 2068,
      "gold</w>": 2069,
      "too": 2070,
      "shade</w>": 2071,
      "transit</w>": 2072,
      "veggies</w>": 2073,
      "towels</w>": 2074,
      "arm": 2075,
      "dic": 2076,
      "held</w>": 2077,
      "was</w>": 2078,
      "foreground</w>": 2079,
      "features</w>": 2080,
      "partially</w>": 2081,
      "bite</w>": 2082,
      "door": 2083,
      "sea</w>": 2084,
      "leather</w>": 2085,
      "walkway</w>": 2086,
      "carrot</w>": 2087,
      "water": 2088,
      "pepperon": 2089,
      "ican</w>": 2090,
      "stries</w>": 2091,
      "mix": 2092,
      "da</w>": 2093,
      "wash": 2094,
      "make</w>": 2095,
      "toilets</w>": 2096,
      "pastries</w>": 2097,
      "colle": 2098,
      "sweat": 2099,
      "bel": 2100,
      "short</w>": 2101,
      "pati": 2102,
      "fighter</w>": 2103,
      "mode": 2104,
      "action</w>": 2105,
      "with": 2106,
      "fully</w>": 2107,
      "photos</w>": 2108,
      "unifor": 2109,
      "gol": 2110,
      "still</w>": 2111,
      "clothing</w>": 2112,
      "tour</w>": 2113,
      "coa": 2114,
      "ones</w>": 2115,
      "eath</w>": 2116,
      "sail</w>": 2117,
      "wrapped</w>": 2118,
      "chips</w>": 2119,
      "sy": 2120,
      "propel": 2121,
      "rink": 2122,
      "scooter</w>": 2123,
      "baked</w>": 2124,
      "mush": 2125,
      "leash</w>": 2126,
      "device</w>": 2127,
      "blurry</w>": 2128,
      "resi": 2129,
      "commuter</w>": 2130,
      "beneath</w>": 2131,
      "palm</w>": 2132,
      "pass</w>": 2133,
      "pepperoni</w>": 2134,
      "hood</w>": 2135,
      "turned</w>": 2136,
      "antique</w>": 2137,
      "spre": 2138,
      "shoul": 2139,
      "tr": 2140,
      "new": 2141,
      "doorway</w>": 2142,
      "bor</w>": 2143,
      "denti": 2144,
      "tions</w>": 2145,
      "sailing</w>": 2146,
      "smoke</w>": 2147,
      "pastry</w>": 2148,
      "loading</w>": 2149,
      "nat": 2150,
      "road": 2151,
      "petting</w>": 2152,
      "sticks</w>": 2153,
      "houses</w>": 2154,
      "sized</w>": 2155,
      "lift</w>": 2156,
      "wet": 2157,
      "sausa": 2158,
      "toys</w>": 2159,
      "grill</w>": 2160,
      "signal</w>": 2161,
      "giving</w>": 2162,
      "kinds</w>": 2163,
      "waits</w>": 2164,
      "mit": 2165,
      "opened</w>": 2166,
      "harbor</w>": 2167,
      "ar</w>": 2168,
      "rooms</w>": 2169,
      "structure</w>": 2170,
      "yo": 2171,
      "loun": 2172,
      "decorative</w>": 2173,
      "pedestrians</w>": 2174,
      "spread</w>": 2175,
      "gging</w>": 2176,
      "lp": 2177,
      "pier</w>": 2178,
      "cooki": 2179,
      "spea": 2180,
      "tire</w>": 2181,
      "comp": 2182,
      "craft</w>": 2183,
      "bit": 2184,
      "contains</w>": 2185,
      "isl": 2186,
      "deck</w>": 2187,
      "rests</w>": 2188,
      "ggy</w>": 2189,
      "island</w>": 2190,
      "blon": 2191,
      "cal</w>": 2192,
      "sprink": 2193,
      "tomato</w>": 2194,
      "gon</w>": 2195,
      "hoo": 2196,
      "winter</w>": 2197,
      "lettu": 2198,
      "apartment</w>": 2199,
      "ite": 2200,
      "ghtly</w>": 2201,
      "pper</w>": 2202,
      "outfit</w>": 2203,
      "prepared</w>": 2204,
      "containers</w>": 2205,
      "lettuce</w>": 2206,
      "six</w>": 2207,
      "straw": 2208,
      "prin": 2209,
      "range</w>": 2210,
      "model</w>": 2211,
      "stack</w>": 2212,
      "includes</w>": 2213,
      "seagu": 2214,
      "streets</w>": 2215,
      "railing</w>": 2216,
      "tensi": 2217,
      "happy</w>": 2218,
      "garage</w>": 2219,
      "farm</w>": 2220,
      "hard</w>": 2221,
      "nood": 2222,
      "peppers</w>": 2223,
      "fig": 2224,
      "cting</w>": 2225,
      "here</w>": 2226,
      "ining</w>": 2227,
      "beans</w>": 2228,
      "vering</w>": 2229,
      "steam</w>": 2230,
      "vement</w>": 2231,
      "multi</w>": 2232,
      "electric</w>": 2233,
      "con</w>": 2234,
      "war": 2235,
      "stun": 2236,
      "vanity</w>": 2237,
      "sem": 2238,
      "makes</w>": 2239,
      "gaz": 2240,
      "leading</w>": 2241,
      "upside</w>": 2242,
      "writ": 2243,
      "ctor</w>": 2244,
      "roll</w>": 2245,
      "bunches</w>": 2246,
      "tail</w>": 2247,
      "cap</w>": 2248,
      "papers</w>": 2249,
      "format": 2250,
      "ong": 2251,
      "lid</w>": 2252,
      "pick</w>": 2253,
      "sculp": 2254,
      "doll</w>": 2255,
      "ile</w>": 2256,
      "pou": 2257,
      "sw": 2258,
      "rai": 2259,
      "pipe</w>": 2260,
      "inte": 2261,
      "color</w>": 2262,
      "spra": 2263,
      "dential</w>": 2264,
      "hats</w>": 2265,
      "rows</w>": 2266,
      "cover</w>": 2267,
      "pee": 2268,
      "comfor": 2269,
      "ctive</w>": 2270,
      "sheet</w>": 2271,
      "tiny</w>": 2272,
      "writing</w>": 2273,
      "produce</w>": 2274,
      "pans</w>": 2275,
      "zer</w>": 2276,
      "ali": 2277,
      "heads</w>": 2278,
      "utensi": 2279,
      "ram": 2280,
      "tea</w>": 2281,
      "mound</w>": 2282,
      "smart</w>": 2283,
      "eel</w>": 2284,
      "sheets</w>": 2285,
      "amer": 2286,
      "soda</w>": 2287,
      "ici": 2288,
      "list</w>": 2289,
      "residential</w>": 2290,
      "life</w>": 2291,
      "ta</w>": 2292,
      "rural</w>": 2293,
      "along": 2294,
      "shopping</w>": 2295,
      "brightly</w>": 2296,
      "barn</w>": 2297,
      "competit": 2298,
      "alongside</w>": 2299,
      "ado": 2300,
      "but</w>": 2301,
      "pavement</w>": 2302,
      "ance</w>": 2303,
      "laid</w>": 2304,
      "bacon</w>": 2305,
      "tation</w>": 2306,
      "patio</w>": 2307,
      "urinals</w>": 2308,
      "these</w>": 2309,
      "smal": 2310,
      "nose</w>": 2311,
      "ton": 2312,
      "remotes</w>": 2313,
      "stard</w>": 2314,
      "teen": 2315,
      "ols</w>": 2316,
      "termin": 2317,
      "touching</w>": 2318,
      "sna": 2319,
      "bage</w>": 2320,
      "directions</w>": 2321,
      "persons</w>": 2322,
      "scape</w>": 2323,
      "tooth</w>": 2324,
      "flu": 2325,
      "flight</w>": 2326,
      "uses</w>": 2327,
      "wheel</w>": 2328,
      "frosting</w>": 2329,
      "snowboards</w>": 2330,
      "disc</w>": 2331,
      "candle</w>": 2332,
      "wetsuit</w>": 2333,
      "formation</w>": 2334,
      "carpet</w>": 2335,
      "sleep</w>": 2336,
      "rainy</w>": 2337,
      "log</w>": 2338,
      "branches</w>": 2339,
      "smaller</w>": 2340,
      "chup</w>": 2341,
      "mug</w>": 2342,
      "milk</w>": 2343,
      "juice</w>": 2344,
      "la</w>": 2345,
      "meters</w>": 2346,
      "displaying</w>": 2347,
      "goes</w>": 2348,
      "flags</w>": 2349,
      "sla": 2350,
      "cle</w>": 2351,
      "bush</w>": 2352,
      "officer</w>": 2353,
      "ketchup</w>": 2354,
      "noodles</w>": 2355,
      "ep</w>": 2356,
      "ow": 2357,
      "pri": 2358,
      "mustard</w>": 2359,
      "purse</w>": 2360,
      "kicking</w>": 2361,
      "ina</w>": 2362,
      "alley</w>": 2363,
      "eled</w>": 2364,
      "costu": 2365,
      "tent</w>": 2366,
      "balls</w>": 2367,
      "practic": 2368,
      "costume</w>": 2369,
      "bit</w>": 2370,
      "itself</w>": 2371,
      "ladies</w>": 2372,
      "derly</w>": 2373,
      "dresser</w>": 2374,
      "rolling</w>": 2375,
      "personal</w>": 2376,
      "sliding</w>": 2377,
      "char": 2378,
      "riders</w>": 2379,
      "muse": 2380,
      "parade</w>": 2381,
      "gers</w>": 2382,
      "gran": 2383,
      "course</w>": 2384,
      "american</w>": 2385,
      "deep</w>": 2386,
      "spec": 2387,
      "gas</w>": 2388,
      "kin</w>": 2389,
      "photograph": 2390,
      "wed</w>": 2391,
      "ured</w>": 2392,
      "only</w>": 2393,
      "smile</w>": 2394,
      "ump</w>": 2395,
      "stuff</w>": 2396,
      "uniforms</w>": 2397,
      "stick</w>": 2398,
      "written</w>": 2399,
      "hun": 2400,
      "land": 2401,
      "trays</w>": 2402,
      "nap": 2403,
      "ways</w>": 2404,
      "enclosed</w>": 2405,
      "utensils</w>": 2406,
      "rope</w>": 2407,
      "locat": 2408,
      "bei": 2409,
      "throws</w>": 2410,
      "pickup</w>": 2411,
      "terminal</w>": 2412,
      "enter": 2413,
      "fun</w>": 2414,
      "rear</w>": 2415,
      "indivi": 2416,
      "vest</w>": 2417,
      "greens</w>": 2418,
      "mushrooms</w>": 2419,
      "sausage</w>": 2420,
      "individu": 2421,
      "lage</w>": 2422,
      "leans</w>": 2423,
      "approaching</w>": 2424,
      "egg</w>": 2425,
      "sweater</w>": 2426,
      "nate</w>": 2427,
      "built</w>": 2428,
      "ducks</w>": 2429,
      "platter</w>": 2430,
      "turning</w>": 2431,
      "beige</w>": 2432,
      "elderly</w>": 2433,
      "decorations</w>": 2434,
      "ornate</w>": 2435,
      "amon": 2436,
      "paddle</w>": 2437,
      "fried</w>": 2438,
      "bride</w>": 2439,
      "guit": 2440,
      "goats</w>": 2441,
      "gged</w>": 2442,
      "ware</w>": 2443,
      "siting</w>": 2444,
      "posed</w>": 2445,
      "semi</w>": 2446,
      "paved</w>": 2447,
      "propeller</w>": 2448,
      "spectat": 2449,
      "tow</w>": 2450,
      "collection</w>": 2451,
      "gar</w>": 2452,
      "beverage</w>": 2453,
      "indoor</w>": 2454,
      "sol": 2455,
      "attempting</w>": 2456,
      "iti": 2457,
      "posted</w>": 2458,
      "growing</w>": 2459,
      "fake</w>": 2460,
      "chers</w>": 2461,
      "hangs</w>": 2462,
      "most</w>": 2463,
      "supp": 2464,
      "dea": 2465,
      "jets</w>": 2466,
      "tless</w>": 2467,
      "passes</w>": 2468,
      "baskets</w>": 2469,
      "igh": 2470,
      "lists</w>": 2471,
      "wagon</w>": 2472,
      "runs</w>": 2473,
      "direction</w>": 2474,
      "shoe</w>": 2475,
      "ital</w>": 2476,
      "home": 2477,
      "tball</w>": 2478,
      "erts</w>": 2479,
      "wind</w>": 2480,
      "circu": 2481,
      "nel</w>": 2482,
      "pulls</w>": 2483,
      "wheels</w>": 2484,
      "relaxing</w>": 2485,
      "roadway</w>": 2486,
      "leg</w>": 2487,
      "sports</w>": 2488,
      "groom</w>": 2489,
      "bull</w>": 2490,
      "sky": 2491,
      "cap": 2492,
      "potted</w>": 2493,
      "packed</w>": 2494,
      "wait</w>": 2495,
      "bile</w>": 2496,
      "stadium</w>": 2497,
      "mitt</w>": 2498,
      "ef</w>": 2499,
      "ior</w>": 2500,
      "we</w>": 2501,
      "como": 2502,
      "power</w>": 2503,
      "wires</w>": 2504,
      "jet": 2505,
      "ired</w>": 2506,
      "oli": 2507,
      "stal": 2508,
      "locomo": 2509,
      "vie": 2510,
      "lamps</w>": 2511,
      "crosswalk</w>": 2512,
      "spectators</w>": 2513,
      "ffy</w>": 2514,
      "mobile</w>": 2515,
      "glazed</w>": 2516,
      "eye</w>": 2517,
      "ckered</w>": 2518,
      "if</w>": 2519,
      "rain": 2520,
      "allow</w>": 2521,
      "aircraft</w>": 2522,
      "curled</w>": 2523,
      "piled</w>": 2524,
      "tank</w>": 2525,
      "ness</w>": 2526,
      "pres": 2527,
      "curtains</w>": 2528,
      "washer</w>": 2529,
      "kets</w>": 2530,
      "dro": 2531,
      "mon</w>": 2532,
      "ya": 2533,
      "tax": 2534,
      "grou": 2535,
      "bending</w>": 2536,
      "neatly</w>": 2537,
      "missing</w>": 2538,
      "guitar</w>": 2539,
      "ales</w>": 2540,
      "goo": 2541,
      "tents</w>": 2542,
      "electronic": 2543,
      "gath": 2544,
      "chef</w>": 2545,
      "follo": 2546,
      "shirtless</w>": 2547,
      "cau": 2548,
      "airliner</w>": 2549,
      "patter": 2550,
      "selfi": 2551,
      "electronics</w>": 2552,
      "cri": 2553,
      "bank</w>": 2554,
      "paint</w>": 2555,
      "block</w>": 2556,
      "chain</w>": 2557,
      "falling</w>": 2558,
      "practicing</w>": 2559,
      "locomotive</w>": 2560,
      "tries</w>": 2561,
      "telephone</w>": 2562,
      "climb": 2563,
      "frame</w>": 2564,
      "museum</w>": 2565,
      "crou": 2566,
      "fini": 2567,
      "tures</w>": 2568,
      "toast</w>": 2569,
      "erial</w>": 2570,
      "supplies</w>": 2571,
      "cones</w>": 2572,
      "prote": 2573,
      "laugh": 2574,
      "separ": 2575,
      "wind": 2576,
      "scra": 2577,
      "mirrors</w>": 2578,
      "toothbrushes</w>": 2579,
      "sculpture</w>": 2580,
      "dead</w>": 2581,
      "cele": 2582,
      "how</w>": 2583,
      "father</w>": 2584,
      "flip</w>": 2585,
      "flown</w>": 2586,
      "performs</w>": 2587,
      "without</w>": 2588,
      "selfie</w>": 2589,
      "len</w>": 2590,
      "val</w>": 2591,
      "tiles</w>": 2592,
      "mini": 2593,
      "roses</w>": 2594,
      "gather</w>": 2595,
      "posite</w>": 2596,
      "shirts</w>": 2597,
      "fun": 2598,
      "also</w>": 2599,
      "jeans</w>": 2600,
      "stunt</w>": 2601,
      "my</w>": 2602,
      "bucket</w>": 2603,
      "motion</w>": 2604,
      "landscape</w>": 2605,
      "bou": 2606,
      "shoulder</w>": 2607,
      "celebra": 2608,
      "icing</w>": 2609,
      "garbage</w>": 2610,
      "acce": 2611,
      "homemade</w>": 2612,
      "vil": 2613,
      "ingre": 2614,
      "waters</w>": 2615,
      "images</w>": 2616,
      "haired</w>": 2617,
      "good</w>": 2618,
      "surrounding</w>": 2619,
      "toaster</w>": 2620,
      "pedestrian</w>": 2621,
      "freezer</w>": 2622,
      "ingredi": 2623,
      "chan": 2624,
      "holder</w>": 2625,
      "puppy</w>": 2626,
      "selling</w>": 2627,
      "advertise": 2628,
      "sni": 2629,
      "shallow</w>": 2630,
      "stream</w>": 2631,
      "talks</w>": 2632,
      "tongue</w>": 2633,
      "bil": 2634,
      "jun": 2635,
      "tle": 2636,
      "hotdogs</w>": 2637,
      "you</w>": 2638,
      "strawberries</w>": 2639,
      "covering</w>": 2640,
      "floral</w>": 2641,
      "don</w>": 2642,
      "hits</w>": 2643,
      "pt</w>": 2644,
      "opposite</w>": 2645,
      "workers</w>": 2646,
      "nume": 2647,
      "rolls</w>": 2648,
      "arrange": 2649,
      "cupcakes</w>": 2650,
      "ig": 2651,
      "touri": 2652,
      "ingredients</w>": 2653,
      "horse": 2654,
      "stuck</w>": 2655,
      "fallen</w>": 2656,
      "downhill</w>": 2657,
      "jetliner</w>": 2658,
      "ren": 2659,
      "put</w>": 2660,
      "objects</w>": 2661,
      "sprinkles</w>": 2662,
      "travels</w>": 2663,
      "pitching</w>": 2664,
      "blankets</w>": 2665,
      "grill": 2666,
      "fluffy</w>": 2667,
      "sy</w>": 2668,
      "cam": 2669,
      "skateboarders</w>": 2670,
      "steep</w>": 2671,
      "deli": 2672,
      "buff": 2673,
      "fir": 2674,
      "ence</w>": 2675,
      "habit": 2676,
      "asleep</w>": 2677,
      "frosted</w>": 2678,
      "stop": 2679,
      "snowboarders</w>": 2680,
      "ballo": 2681,
      "entran": 2682,
      "lish</w>": 2683,
      "shion</w>": 2684,
      "org": 2685,
      "ature</w>": 2686,
      "counters</w>": 2687,
      "featuring</w>": 2688,
      "conver": 2689,
      "mid": 2690,
      "marble</w>": 2691,
      "urinal</w>": 2692,
      "mixed</w>": 2693,
      "gathering</w>": 2694,
      "horseback</w>": 2695,
      "vol": 2696,
      "chu": 2697,
      "conne": 2698,
      "competition</w>": 2699,
      "speed</w>": 2700,
      "tun": 2701,
      "fs</w>": 2702,
      "vo": 2703,
      "skirt</w>": 2704,
      "foil</w>": 2705,
      "mag": 2706,
      "faces</w>": 2707,
      "visible</w>": 2708,
      "patch</w>": 2709,
      "position</w>": 2710,
      "headphones</w>": 2711,
      "pouring</w>": 2712,
      "mel": 2713,
      "stem</w>": 2714,
      "entrance</w>": 2715,
      "wea": 2716,
      "beard</w>": 2717,
      "padd": 2718,
      "muff": 2719,
      "feeder</w>": 2720,
      "bbing</w>": 2721,
      "habitat</w>": 2722,
      "pushing</w>": 2723,
      "item</w>": 2724,
      "ever": 2725,
      "whole</w>": 2726,
      "ancing</w>": 2727,
      "checkered</w>": 2728,
      "barre": 2729,
      "handle</w>": 2730,
      "rec": 2731,
      "string</w>": 2732,
      "cargo</w>": 2733,
      "microphone</w>": 2734,
      "officers</w>": 2735,
      "gentle": 2736,
      "pictured</w>": 2737,
      "corn</w>": 2738,
      "scar": 2739,
      "london</w>": 2740,
      "slopes</w>": 2741,
      "blonde</w>": 2742,
      "eu": 2743,
      "neon</w>": 2744,
      "travel</w>": 2745,
      "design</w>": 2746,
      "ham</w>": 2747,
      "drive</w>": 2748,
      "quid</w>": 2749,
      "sniff": 2750,
      "dle</w>": 2751,
      "foun": 2752,
      "pl": 2753,
      "gli": 2754,
      "covers</w>": 2755,
      "stud": 2756,
      "serv": 2757,
      "stickers</w>": 2758,
      "arrangement</w>": 2759,
      "ei": 2760,
      "exten": 2761,
      "furni": 2762,
      "napkin</w>": 2763,
      "laughing</w>": 2764,
      "ages</w>": 2765,
      "ben</w>": 2766,
      "shiny</w>": 2767,
      "reaches</w>": 2768,
      "batting</w>": 2769,
      "name</w>": 2770,
      "carries</w>": 2771,
      "erry</w>": 2772,
      "pige": 2773,
      "comple": 2774,
      "burger</w>": 2775,
      "ut</w>": 2776,
      "cow": 2777,
      "focu": 2778,
      "fix": 2779,
      "proce": 2780,
      "delici": 2781,
      "blowing</w>": 2782,
      "desserts</w>": 2783,
      "climbing</w>": 2784,
      "moves</w>": 2785,
      "hang</w>": 2786,
      "wears</w>": 2787,
      "jar</w>": 2788,
      "interior</w>": 2789,
      "golden</w>": 2790,
      "teena": 2791,
      "ird</w>": 2792,
      "basket": 2793,
      "olives</w>": 2794,
      "delicious</w>": 2795,
      "basketball</w>": 2796,
      "bare</w>": 2797,
      "desig": 2798,
      "great</w>": 2799,
      "condi": 2800,
      "duck</w>": 2801,
      "cookies</w>": 2802,
      "day": 2803,
      "opening</w>": 2804,
      "ramic</w>": 2805,
      "dboard</w>": 2806,
      "sse": 2807,
      "instru": 2808,
      "rainbow</w>": 2809,
      "fall</w>": 2810,
      "arti": 2811,
      "plaid</w>": 2812,
      "beef</w>": 2813,
      "liquid</w>": 2814,
      "gravel</w>": 2815,
      "pack": 2816,
      "cto": 2817,
      "mer</w>": 2818,
      "tte</w>": 2819,
      "atten": 2820,
      "soa": 2821,
      "onion</w>": 2822,
      "far</w>": 2823,
      "someones</w>": 2824,
      "controls</w>": 2825,
      "ahead</w>": 2826,
      "tic</w>": 2827,
      "ght": 2828,
      "hamb": 2829,
      "lighting</w>": 2830,
      "mini</w>": 2831,
      "first</w>": 2832,
      "hambur": 2833,
      "size</w>": 2834,
      "pera": 2835,
      "shape</w>": 2836,
      "straw</w>": 2837,
      "hose</w>": 2838,
      "cardboard</w>": 2839,
      "cycle</w>": 2840,
      "ori": 2841,
      "more</w>": 2842,
      "mal</w>": 2843,
      "lane</w>": 2844,
      "trol": 2845,
      "potato</w>": 2846,
      "bo</w>": 2847,
      "cleaning</w>": 2848,
      "el</w>": 2849,
      "fan</w>": 2850,
      "real</w>": 2851,
      "exhi": 2852,
      "spee": 2853,
      "miniature</w>": 2854,
      "plu": 2855,
      "indic": 2856,
      "thouse</w>": 2857,
      "shly</w>": 2858,
      "wings</w>": 2859,
      "story</w>": 2860,
      "musi": 2861,
      "clay</w>": 2862,
      "mat</w>": 2863,
      "ils</w>": 2864,
      "jocke": 2865,
      "men": 2866,
      "pin": 2867,
      "fishing</w>": 2868,
      "goat</w>": 2869,
      "displays</w>": 2870,
      "butter</w>": 2871,
      "grilled</w>": 2872,
      "ise</w>": 2873,
      "stage</w>": 2874,
      "checking</w>": 2875,
      "bers</w>": 2876,
      "shru": 2877,
      "located</w>": 2878,
      "advertisement</w>": 2879,
      "fountain</w>": 2880,
      "seats</w>": 2881,
      "bunk</w>": 2882,
      "hills</w>": 2883,
      "soldi": 2884,
      "condiments</w>": 2885,
      "sport</w>": 2886,
      "ices</w>": 2887,
      "spin": 2888,
      "bookshelf</w>": 2889,
      "sal": 2890,
      "indu": 2891,
      "stal</w>": 2892,
      "shadow</w>": 2893,
      "fy</w>": 2894,
      "dryer</w>": 2895,
      "news": 2896,
      "kno": 2897,
      "stor": 2898,
      "mans</w>": 2899,
      "counter": 2900,
      "catches</w>": 2901,
      "word</w>": 2902,
      "ma</w>": 2903,
      "thin</w>": 2904,
      "consi": 2905,
      "forward</w>": 2906,
      "flooring</w>": 2907,
      "driver</w>": 2908,
      "words</w>": 2909,
      "berry</w>": 2910,
      "ign</w>": 2911,
      "newspaper</w>": 2912,
      "cran": 2913,
      "ld</w>": 2914,
      "mly</w>": 2915,
      "rings</w>": 2916,
      "unmade</w>": 2917,
      "rusty</w>": 2918,
      "bent</w>": 2919,
      "bars</w>": 2920,
      "ined</w>": 2921,
      "thy</w>": 2922,
      "art": 2923,
      "tools</w>": 2924,
      "magaz": 2925,
      "carts</w>": 2926,
      "travelling</w>": 2927,
      "accesso": 2928,
      "organi": 2929,
      "'t</w>": 2930,
      "dly</w>": 2931,
      "nets</w>": 2932,
      "muddy</w>": 2933,
      "league</w>": 2934,
      "mbs</w>": 2935,
      "pickle</w>": 2936,
      "wheel": 2937,
      "aerial</w>": 2938,
      "cit": 2939,
      "farm": 2940,
      "parro": 2941,
      "pair": 2942,
      "strial</w>": 2943,
      "spen": 2944,
      "tabby</w>": 2945,
      "either</w>": 2946,
      "trolley</w>": 2947,
      "industrial</w>": 2948,
      "ger": 2949,
      "ue</w>": 2950,
      "wear</w>": 2951,
      "neigh": 2952,
      "ice": 2953,
      "sharing</w>": 2954,
      "herself</w>": 2955,
      "strip</w>": 2956,
      "helme": 2957,
      "balcon": 2958,
      "biting</w>": 2959,
      "attire</w>": 2960,
      "custo": 2961,
      "series</w>": 2962,
      "meadow</w>": 2963,
      "stly</w>": 2964,
      "return</w>": 2965,
      "seems</w>": 2966,
      "helping</w>": 2967,
      "stares</w>": 2968,
      "entertain": 2969,
      "thi": 2970,
      "ates</w>": 2971,
      "iron</w>": 2972,
      "cafe</w>": 2973,
      "pad</w>": 2974,
      "crust</w>": 2975,
      "try": 2976,
      "comforter</w>": 2977,
      "exhibit</w>": 2978,
      "ese</w>": 2979,
      "sks</w>": 2980,
      "cast</w>": 2981,
      "watering</w>": 2982,
      "leaned</w>": 2983,
      "following</w>": 2984,
      "ser</w>": 2985,
      "stle</w>": 2986,
      "chili</w>": 2987,
      "hall": 2988,
      "folded</w>": 2989,
      "steak</w>": 2990,
      "ang": 2991,
      "paw</w>": 2992,
      "rusted</w>": 2993,
      "frisbees</w>": 2994,
      "sleeps</w>": 2995,
      "grapes</w>": 2996,
      "gloves</w>": 2997,
      "chasing</w>": 2998,
      "steeple</w>": 2999,
      "audi": 3000,
      "nicely</w>": 3001,
      "advertising</w>": 3002,
      "coach</w>": 3003,
      "hallway</w>": 3004,
      "dish": 3005,
      "freshly</w>": 3006,
      "illu": 3007,
      "railway</w>": 3008,
      "multicolored</w>": 3009,
      "accessories</w>": 3010,
      "blow</w>": 3011,
      "twin</w>": 3012,
      "lif": 3013,
      "libr": 3014,
      "thrown</w>": 3015,
      "night": 3016,
      "ette</w>": 3017,
      "seagulls</w>": 3018,
      "eting</w>": 3019,
      "zen</w>": 3020,
      "tasty</w>": 3021,
      "ney</w>": 3022,
      "pancakes</w>": 3023,
      "roller</w>": 3024,
      "stoplight</w>": 3025,
      "library</w>": 3026,
      "ive</w>": 3027,
      "mple</w>": 3028,
      "sters</w>": 3029,
      "almost</w>": 3030,
      "hosp": 3031,
      "groc": 3032,
      "mostly</w>": 3033,
      "ceramic</w>": 3034,
      "inese</w>": 3035,
      "calf</w>": 3036,
      "ear": 3037,
      "chinese</w>": 3038,
      "baking</w>": 3039,
      "system</w>": 3040,
      "funny</w>": 3041,
      "rous</w>": 3042,
      "lay</w>": 3043,
      "mattre": 3044,
      "transpor": 3045,
      "teams</w>": 3046,
      "balcony</w>": 3047,
      "hospital</w>": 3048,
      "pine</w>": 3049,
      "rate</w>": 3050,
      "backs</w>": 3051,
      "pow": 3052,
      "paws</w>": 3053,
      "cig": 3054,
      "onloo": 3055,
      "horns</w>": 3056,
      "cuts</w>": 3057,
      "leaving</w>": 3058,
      "marina</w>": 3059,
      "heart</w>": 3060,
      "borhood</w>": 3061,
      "connected</w>": 3062,
      "neighborhood</w>": 3063,
      "dishwasher</w>": 3064,
      "grin": 3065,
      "pare</w>": 3066,
      "table": 3067,
      "wered</w>": 3068,
      "matching</w>": 3069,
      "designed</w>": 3070,
      "metal": 3071,
      "stool</w>": 3072,
      "picking</w>": 3073,
      "natu": 3074,
      "gentleman</w>": 3075,
      "ears</w>": 3076,
      "gst</w>": 3077,
      "ron</w>": 3078,
      "ily</w>": 3079,
      "heavy</w>": 3080,
      "hau": 3081,
      "hugging</w>": 3082,
      "amongst</w>": 3083,
      "bak": 3084,
      "formal</w>": 3085,
      "country": 3086,
      "heading</w>": 3087,
      "prepare</w>": 3088,
      "statues</w>": 3089,
      "cigare": 3090,
      "metallic</w>": 3091,
      "drive": 3092,
      "tery</w>": 3093,
      "point</w>": 3094,
      "cowboy</w>": 3095,
      "countryside</w>": 3096,
      "able</w>": 3097,
      "shar": 3098,
      "sual</w>": 3099,
      "santa</w>": 3100,
      "trunks</w>": 3101,
      "ggles</w>": 3102,
      "owner</w>": 3103,
      "tunnel</w>": 3104,
      "hamburger</w>": 3105,
      "sn": 3106,
      "gie</w>": 3107,
      "card</w>": 3108,
      "keys</w>": 3109,
      "typing</w>": 3110,
      "barri": 3111,
      "sely</w>": 3112,
      "buffet</w>": 3113,
      "driveway</w>": 3114,
      "ano</w>": 3115,
      "rose</w>": 3116,
      "ried</w>": 3117,
      "nee": 3118,
      "dered</w>": 3119,
      "gular</w>": 3120,
      "nuts</w>": 3121,
      "collar</w>": 3122,
      "booth</w>": 3123,
      "hard": 3124,
      "cupcake</w>": 3125,
      "sniffing</w>": 3126,
      "audience</w>": 3127,
      "spar": 3128,
      "zes</w>": 3129,
      "tractor</w>": 3130,
      "shining</w>": 3131,
      "suspen": 3132,
      "jumbo</w>": 3133,
      "foreign</w>": 3134,
      "lamb</w>": 3135,
      "tor": 3136,
      "sets</w>": 3137,
      "calm</w>": 3138,
      "castle</w>": 3139,
      "chopped</w>": 3140,
      "paste</w>": 3141,
      "rails</w>": 3142,
      "individual</w>": 3143,
      "bouquet</w>": 3144,
      "natural</w>": 3145,
      "bakery</w>": 3146,
      "larger</w>": 3147,
      "boots</w>": 3148,
      "progre": 3149,
      "magnets</w>": 3150,
      "lad": 3151,
      "piano</w>": 3152,
      "dimly</w>": 3153,
      "mask</w>": 3154,
      "sunlight</w>": 3155,
      "devices</w>": 3156,
      "organized</w>": 3157,
      "bloo": 3158,
      "licking</w>": 3159,
      "tter</w>": 3160,
      "skil": 3161,
      "para</w>": 3162,
      "lim": 3163,
      "poster</w>": 3164,
      "mount</w>": 3165,
      "lighthouse</w>": 3166,
      "vendo": 3167,
      "downtown</w>": 3168,
      "every": 3169,
      "fans</w>": 3170,
      "stair": 3171,
      "worker</w>": 3172,
      "candy</w>": 3173,
      "circular</w>": 3174,
      "entertainment</w>": 3175,
      "arded</w>": 3176,
      "doned</w>": 3177,
      "sub</w>": 3178,
      "dusk</w>": 3179,
      "thick</w>": 3180,
      "resort</w>": 3181,
      "bikin": 3182,
      "motorbike</w>": 3183,
      "seagull</w>": 3184,
      "ath": 3185,
      "aban": 3186,
      "bell</w>": 3187,
      "mbo": 3188,
      "uc": 3189,
      "cold</w>": 3190,
      "propped</w>": 3191,
      "proje": 3192,
      "chest</w>": 3193,
      "even": 3194,
      "jer": 3195,
      "baggage</w>": 3196,
      "beg": 3197,
      "lightly</w>": 3198,
      "smoking</w>": 3199,
      "stretched</w>": 3200,
      "pairs</w>": 3201,
      "abandoned</w>": 3202,
      "ier</w>": 3203,
      "come</w>": 3204,
      "neat</w>": 3205,
      "ssed</w>": 3206,
      "lemon": 3207,
      "pical</w>": 3208,
      "hiding</w>": 3209,
      "adju": 3210,
      "don": 3211,
      "bearded</w>": 3212,
      "zing</w>": 3213,
      "washing</w>": 3214,
      "brow": 3215,
      "sugar</w>": 3216,
      "chewing</w>": 3217,
      "helmets</w>": 3218,
      "jerse": 3219,
      "ioned</w>": 3220,
      "cool": 3221,
      "busses</w>": 3222,
      "gui": 3223,
      "cook</w>": 3224,
      "decor</w>": 3225,
      "shaking</w>": 3226,
      "obsta": 3227,
      "cano": 3228,
      "cupboards</w>": 3229,
      "focus</w>": 3230,
      "onlookers</w>": 3231,
      "progress</w>": 3232,
      "tin</w>": 3233,
      "lay": 3234,
      "tossing</w>": 3235,
      "peeled</w>": 3236,
      "pies</w>": 3237,
      "quets</w>": 3238,
      "backyard</w>": 3239,
      "kick</w>": 3240,
      "opera": 3241,
      "bay</w>": 3242,
      "depic": 3243,
      "furry</w>": 3244,
      "males</w>": 3245,
      "see": 3246,
      "storage</w>": 3247,
      "motorcyclist</w>": 3248,
      "dispen": 3249,
      "mud</w>": 3250,
      "turns</w>": 3251,
      "reflected</w>": 3252,
      "upon</w>": 3253,
      "framed</w>": 3254,
      "belt</w>": 3255,
      "lounging</w>": 3256,
      "separate</w>": 3257,
      "parrot</w>": 3258,
      "ka": 3259,
      "zy</w>": 3260,
      "besides</w>": 3261,
      "dio</w>": 3262,
      "odd</w>": 3263,
      "illumin": 3264,
      "rable</w>": 3265,
      "bas": 3266,
      "note": 3267,
      "scat": 3268,
      "grazes</w>": 3269,
      "heal": 3270,
      "raised</w>": 3271,
      "mattress</w>": 3272,
      "ach</w>": 3273,
      "tablet</w>": 3274,
      "contents</w>": 3275,
      "collage</w>": 3276,
      "apron</w>": 3277,
      "silver": 3278,
      "unique</w>": 3279,
      "cliff</w>": 3280,
      "tro</w>": 3281,
      "cigarette</w>": 3282,
      "acc": 3283,
      "sailboat</w>": 3284,
      "evening</w>": 3285,
      "ered</w>": 3286,
      "mers</w>": 3287,
      "ut": 3288,
      "tho": 3289,
      "thum": 3290,
      "bikers</w>": 3291,
      "spinach</w>": 3292,
      "hair": 3293,
      "langu": 3294,
      "savan": 3295,
      "skiis</w>": 3296,
      "weather</w>": 3297,
      "scarf</w>": 3298,
      "daytime</w>": 3299,
      "lers</w>": 3300,
      "sco": 3301,
      "rece": 3302,
      "kitty</w>": 3303,
      "chefs</w>": 3304,
      "football</w>": 3305,
      "lounge</w>": 3306,
      "presen": 3307,
      "taxi</w>": 3308,
      "lemon</w>": 3309,
      "opy</w>": 3310,
      "porch</w>": 3311,
      "circle</w>": 3312,
      "golf</w>": 3313,
      "finished</w>": 3314,
      "silverware</w>": 3315,
      "bats</w>": 3316,
      "pand": 3317,
      "played</w>": 3318,
      "crosses</w>": 3319,
      "tex": 3320,
      "ladder</w>": 3321,
      "band</w>": 3322,
      "bles</w>": 3323,
      "vated</w>": 3324,
      "stum": 3325,
      "green": 3326,
      "safe": 3327,
      "racquets</w>": 3328,
      "derness</w>": 3329,
      "cookie</w>": 3330,
      "hardwood</w>": 3331,
      "sign": 3332,
      "wilderness</w>": 3333,
      "canopy</w>": 3334,
      "pony</w>": 3335,
      "finger</w>": 3336,
      "athle": 3337,
      "kee": 3338,
      "really</w>": 3339,
      "guard</w>": 3340,
      "leafy</w>": 3341,
      "police": 3342,
      "adorable</w>": 3343,
      "drop</w>": 3344,
      "aged</w>": 3345,
      "arch": 3346,
      "tag</w>": 3347,
      "saying</w>": 3348,
      "goggles</w>": 3349,
      "cabin</w>": 3350,
      "grocery</w>": 3351,
      "freight</w>": 3352,
      "screens</w>": 3353,
      "magazine</w>": 3354,
      "bikini</w>": 3355,
      "scattered</w>": 3356,
      "bby</w>": 3357,
      "im": 3358,
      "simple</w>": 3359,
      "decoration</w>": 3360,
      "clutter</w>": 3361,
      "ador": 3362,
      "lemons</w>": 3363,
      "dump</w>": 3364,
      "ul": 3365,
      "za</w>": 3366,
      "lambs</w>": 3367,
      "rages</w>": 3368,
      "sizes</w>": 3369,
      "ental</w>": 3370,
      "pean": 3371,
      "balancing</w>": 3372,
      "break</w>": 3373,
      "selves</w>": 3374,
      "warning</w>": 3375,
      "peeking</w>": 3376,
      "our": 3377,
      "enga": 3378,
      "lie</w>": 3379,
      "move</w>": 3380,
      "moped</w>": 3381,
      "lear": 3382,
      "vely</w>": 3383,
      "towering</w>": 3384,
      "ssion</w>": 3385,
      "stretching</w>": 3386,
      "tourists</w>": 3387,
      "complete</w>": 3388,
      "jockey</w>": 3389,
      "amount</w>": 3390,
      "cum": 3391,
      "headed</w>": 3392,
      "works</w>": 3393,
      "drawers</w>": 3394,
      "jungle</w>": 3395,
      "pigeons</w>": 3396,
      "countertop</w>": 3397,
      "snea": 3398,
      "logs</w>": 3399,
      "costum": 3400,
      "them": 3401,
      "fabri": 3402,
      "delivery</w>": 3403,
      "healthy</w>": 3404,
      "safety</w>": 3405,
      "rou": 3406,
      "ribb": 3407,
      "spot</w>": 3408,
      "quiet</w>": 3409,
      "straight</w>": 3410,
      "balloons</w>": 3411,
      "own</w>": 3412,
      "util": 3413,
      "too</w>": 3414,
      "confe": 3415,
      "parachu": 3416,
      "furnished</w>": 3417,
      "jersey</w>": 3418,
      "themselves</w>": 3419,
      "elling</w>": 3420,
      "sel</w>": 3421,
      "closet</w>": 3422,
      "friend</w>": 3423,
      "turkey</w>": 3424,
      "tyard</w>": 3425,
      "class": 3426,
      "pickles</w>": 3427,
      "fighting</w>": 3428,
      "courtyard</w>": 3429,
      "photographs</w>": 3430,
      "numerous</w>": 3431,
      "service</w>": 3432,
      "suspended</w>": 3433,
      "dges</w>": 3434,
      "indoors</w>": 3435,
      "fixing</w>": 3436,
      "gel</w>": 3437,
      "mess": 3438,
      "surfs</w>": 3439,
      "tusks</w>": 3440,
      "sticker</w>": 3441,
      "classroom</w>": 3442,
      "read</w>": 3443,
      "shore": 3444,
      "shops</w>": 3445,
      "buns</w>": 3446,
      "leaf</w>": 3447,
      "lighted</w>": 3448,
      "beverages</w>": 3449,
      "army</w>": 3450,
      "figure</w>": 3451,
      "spray</w>": 3452,
      "hung</w>": 3453,
      "cans</w>": 3454,
      "ka</w>": 3455,
      "load</w>": 3456,
      "topping</w>": 3457,
      "grown</w>": 3458,
      "students</w>": 3459,
      "crane</w>": 3460,
      "ribbon</w>": 3461,
      "tings</w>": 3462,
      "plaza</w>": 3463,
      "shri": 3464,
      "pull</w>": 3465,
      "vegetation</w>": 3466,
      "obstacle</w>": 3467,
      "comes</w>": 3468,
      "feed</w>": 3469,
      "cellphones</w>": 3470,
      "blin": 3471,
      "tin": 3472,
      "cop": 3473,
      "set": 3474,
      "foggy</w>": 3475,
      "stops</w>": 3476,
      "bathing</w>": 3477,
      "bund": 3478,
      "positioned</w>": 3479,
      "unu": 3480,
      "talk</w>": 3481,
      "enjoy</w>": 3482,
      "classi": 3483,
      "speakers</w>": 3484,
      "blond</w>": 3485,
      "muffin</w>": 3486,
      "panda</w>": 3487,
      "shoreline</w>": 3488,
      "bly</w>": 3489,
      "arri": 3490,
      "sten": 3491,
      "site</w>": 3492,
      "war</w>": 3493,
      "motorcyclists</w>": 3494,
      "quil": 3495,
      "ssive</w>": 3496,
      "bin</w>": 3497,
      "fea": 3498,
      "slightly</w>": 3499,
      "cereal</w>": 3500,
      "canoe</w>": 3501,
      "spla": 3502,
      "spi": 3503,
      "than</w>": 3504,
      "strange</w>": 3505,
      "ena</w>": 3506,
      "bull": 3507,
      "ical</w>": 3508,
      "carto": 3509,
      "slicing</w>": 3510,
      "portra": 3511,
      "crossed</w>": 3512,
      "consisting</w>": 3513,
      "shrimp</w>": 3514,
      "dent</w>": 3515,
      "packs</w>": 3516,
      "eleg": 3517,
      "puts</w>": 3518,
      "comb": 3519,
      "cone</w>": 3520,
      "dded</w>": 3521,
      "monkey</w>": 3522,
      "scooters</w>": 3523,
      "snack</w>": 3524,
      "skyline</w>": 3525,
      "groups</w>": 3526,
      "goods</w>": 3527,
      "paddling</w>": 3528,
      "ca</w>": 3529,
      "arena</w>": 3530,
      "neck": 3531,
      "married</w>": 3532,
      "nap</w>": 3533,
      "silhou": 3534,
      "approaches</w>": 3535,
      "ths</w>": 3536,
      "layer</w>": 3537,
      "airlines</w>": 3538,
      "festi": 3539,
      "reflecting</w>": 3540,
      "points</w>": 3541,
      "waterway</w>": 3542,
      "gr": 3543,
      "lining</w>": 3544,
      "attempts</w>": 3545,
      "charac": 3546,
      "convers": 3547,
      "oriental</w>": 3548,
      "music</w>": 3549,
      "fabric</w>": 3550,
      "afri": 3551,
      "sly</w>": 3552,
      "tors</w>": 3553,
      "seven</w>": 3554,
      "designs</w>": 3555,
      "rustic</w>": 3556,
      "conve": 3557,
      "cushion</w>": 3558,
      "catchers</w>": 3559,
      "village</w>": 3560,
      "process</w>": 3561,
      "illuminated</w>": 3562,
      "basin</w>": 3563,
      "street": 3564,
      "grabbing</w>": 3565,
      "sideways</w>": 3566,
      "numbers</w>": 3567,
      "granite</w>": 3568,
      "ela": 3569,
      "ky</w>": 3570,
      "mou": 3571,
      "allo": 3572,
      "atting</w>": 3573,
      "cop</w>": 3574,
      "secon": 3575,
      "shut": 3576,
      "wading</w>": 3577,
      "level</w>": 3578,
      "meeting</w>": 3579,
      "fauc": 3580,
      "ham": 3581,
      "leaping</w>": 3582,
      "bald</w>": 3583,
      "step</w>": 3584,
      "tical</w>": 3585,
      "caught</w>": 3586,
      "faucet</w>": 3587,
      "attra": 3588,
      "dig": 3589,
      "ddled</w>": 3590,
      "rested</w>": 3591,
      "observing</w>": 3592,
      "fixtures</w>": 3593,
      "teenager</w>": 3594,
      "dispenser</w>": 3595,
      "hum": 3596,
      "pens</w>": 3597,
      "tice</w>": 3598,
      "wards</w>": 3599,
      "alco": 3600,
      "waving</w>": 3601,
      "leads</w>": 3602,
      "work": 3603,
      "bedspread</w>": 3604,
      "dated</w>": 3605,
      "oc": 3606,
      "trough</w>": 3607,
      "wild": 3608,
      "softball</w>": 3609,
      "pedestal</w>": 3610,
      "classic</w>": 3611,
      "fed</w>": 3612,
      "ing": 3613,
      "flat": 3614,
      "spoons</w>": 3615,
      "cauli": 3616,
      "unusual</w>": 3617,
      "lic": 3618,
      "mall</w>": 3619,
      "wit</w>": 3620,
      "yed</w>": 3621,
      "deer</w>": 3622,
      "ctional</w>": 3623,
      "monum": 3624,
      "split</w>": 3625,
      "beak</w>": 3626,
      "drawing</w>": 3627,
      "toothpaste</w>": 3628,
      "interesting</w>": 3629,
      "rence</w>": 3630,
      "cauliflower</w>": 3631,
      "is": 3632,
      "sum": 3633,
      "ants</w>": 3634,
      "boarders</w>": 3635,
      "flooded</w>": 3636,
      "cheesy</w>": 3637,
      "heli": 3638,
      "patterned</w>": 3639,
      "vendor</w>": 3640,
      "na</w>": 3641,
      "cobb": 3642,
      "terrain</w>": 3643,
      "garni": 3644,
      "strapped</w>": 3645,
      "slaw</w>": 3646,
      "grand": 3647,
      "conversation</w>": 3648,
      "ostri": 3649,
      "valley</w>": 3650,
      "recor": 3651,
      "urine</w>": 3652,
      "themed</w>": 3653,
      "reach</w>": 3654,
      "boogie</w>": 3655,
      "tropical</w>": 3656,
      "heard</w>": 3657,
      "second</w>": 3658,
      "soft</w>": 3659,
      "dried</w>": 3660,
      "kept</w>": 3661,
      "sailboats</w>": 3662,
      "print</w>": 3663,
      "snacks</w>": 3664,
      "peanut</w>": 3665,
      "monument</w>": 3666,
      "ctly</w>": 3667,
      "chro": 3668,
      "movi": 3669,
      "daugh": 3670,
      "doubles</w>": 3671,
      "human</w>": 3672,
      "soap</w>": 3673,
      "had</w>": 3674,
      "os</w>": 3675,
      "pin</w>": 3676,
      "che</w>": 3677,
      "tags</w>": 3678,
      "posts</w>": 3679,
      "wake</w>": 3680,
      "stopping</w>": 3681,
      "bies</w>": 3682,
      "teen</w>": 3683,
      "cucum": 3684,
      "desks</w>": 3685,
      "individuals</w>": 3686,
      "copter</w>": 3687,
      "angle</w>": 3688,
      "pepper</w>": 3689,
      "rub": 3690,
      "diamon": 3691,
      "facto": 3692,
      "shades</w>": 3693,
      "knives</w>": 3694,
      "canal</w>": 3695,
      "owl</w>": 3696,
      "utility</w>": 3697,
      "helicopter</w>": 3698,
      "link</w>": 3699,
      "tons</w>": 3700,
      "sole</w>": 3701,
      "tending</w>": 3702,
      "much</w>": 3703,
      "piles</w>": 3704,
      "auto": 3705,
      "freeway</w>": 3706,
      "portrait</w>": 3707,
      "compan": 3708,
      "forks</w>": 3709,
      "herding</w>": 3710,
      "photographer</w>": 3711,
      "button</w>": 3712,
      "greenery</w>": 3713,
      "cent</w>": 3714,
      "thers</w>": 3715,
      "laun": 3716,
      "erries</w>": 3717,
      "tasting</w>": 3718,
      "skater</w>": 3719,
      "english</w>": 3720,
      "order</w>": 3721,
      "roaming</w>": 3722,
      "midst</w>": 3723,
      "transportation</w>": 3724,
      "tablecloth</w>": 3725,
      "notebook</w>": 3726,
      "language</w>": 3727,
      "conference</w>": 3728,
      "diamond</w>": 3729,
      "factory</w>": 3730,
      "massive</w>": 3731,
      "medic": 3732,
      "conte": 3733,
      "jackets</w>": 3734,
      "cree": 3735,
      "within</w>": 3736,
      "pattern</w>": 3737,
      "jap": 3738,
      "roman</w>": 3739,
      "ckers</w>": 3740,
      "hooked</w>": 3741,
      "celebrating</w>": 3742,
      "soldiers</w>": 3743,
      "costumes</w>": 3744,
      "elegant</w>": 3745,
      "came": 3746,
      "main</w>": 3747,
      "handing</w>": 3748,
      "stori": 3749,
      "histori": 3750,
      "overpass</w>": 3751,
      "upright</w>": 3752,
      "spraying</w>": 3753,
      "kaya": 3754,
      "quilt</w>": 3755,
      "jars</w>": 3756,
      "polit": 3757,
      "airbor": 3758,
      "serves</w>": 3759,
      "curve</w>": 3760,
      "figurine</w>": 3761,
      "indicating</w>": 3762,
      "elabo": 3763,
      "ha</w>": 3764,
      "opp": 3765,
      "iled</w>": 3766,
      "seating</w>": 3767,
      "depot</w>": 3768,
      "lular</w>": 3769,
      "hangar</w>": 3770,
      "console</w>": 3771,
      "backdrop</w>": 3772,
      "cellular</w>": 3773,
      "state</w>": 3774,
      "mate</w>": 3775,
      "crib</w>": 3776,
      "grinding</w>": 3777,
      "thumbs</w>": 3778,
      "fts</w>": 3779,
      "hall</w>": 3780,
      "kins</w>": 3781,
      "tape</w>": 3782,
      "gives</w>": 3783,
      "stable</w>": 3784,
      "orna": 3785,
      "sails</w>": 3786,
      "practice</w>": 3787,
      "speaking</w>": 3788,
      "extended</w>": 3789,
      "storm</w>": 3790,
      "cartoon</w>": 3791,
      "im</w>": 3792,
      "ion": 3793,
      "third</w>": 3794,
      "ray</w>": 3795,
      "ator</w>": 3796,
      "stools</w>": 3797,
      "fashion</w>": 3798,
      "drivers</w>": 3799,
      "drying</w>": 3800,
      "products</w>": 3801,
      "buggy</w>": 3802,
      "iced</w>": 3803,
      "pug</w>": 3804,
      "weird</w>": 3805,
      "provi": 3806,
      "include</w>": 3807,
      "chained</w>": 3808,
      "wrapper</w>": 3809,
      "rectan": 3810,
      "alcoho": 3811,
      "daughter</w>": 3812,
      "oppon": 3813,
      "ctu": 3814,
      "cleaned</w>": 3815,
      "diti": 3816,
      "snu": 3817,
      "ination</w>": 3818,
      "raft</w>": 3819,
      "ico</w>": 3820,
      "lips</w>": 3821,
      "pod</w>": 3822,
      "cubic": 3823,
      "que": 3824,
      "star</w>": 3825,
      "dough</w>": 3826,
      "remodel": 3827,
      "drawer</w>": 3828,
      "adjusting</w>": 3829,
      "message</w>": 3830,
      "chrome</w>": 3831,
      "airborne</w>": 3832,
      "gy": 3833,
      "ro</w>": 3834,
      "ough</w>": 3835,
      "love</w>": 3836,
      "babies</w>": 3837,
      "waff": 3838,
      "moo": 3839,
      "commo": 3840,
      "naked</w>": 3841,
      "avo": 3842,
      "enty</w>": 3843,
      "plains</w>": 3844,
      "window": 3845,
      "happ": 3846,
      "trio</w>": 3847,
      "kissing</w>": 3848,
      "world</w>": 3849,
      "overcast</w>": 3850,
      "strawberry</w>": 3851,
      "photographed</w>": 3852,
      "circus</w>": 3853,
      "hauling</w>": 3854,
      "parachute</w>": 3855,
      "african</w>": 3856,
      "stir</w>": 3857,
      "lator</w>": 3858,
      "alle": 3859,
      "bagel</w>": 3860,
      "icker</w>": 3861,
      "dest": 3862,
      "path": 3863,
      "mom</w>": 3864,
      "cheese": 3865,
      "nah</w>": 3866,
      "polka</w>": 3867,
      "peel</w>": 3868,
      "signals</w>": 3869,
      "ited</w>": 3870,
      "stroller</w>": 3871,
      "placing</w>": 3872,
      "skin": 3873,
      "dian</w>": 3874,
      "mashed</w>": 3875,
      "elevated</w>": 3876,
      "hip": 3877,
      "will</w>": 3878,
      "bill": 3879,
      "pinea": 3880,
      "savannah</w>": 3881,
      "sneakers</w>": 3882,
      "dwalk</w>": 3883,
      "fat</w>": 3884,
      "twi": 3885,
      "winding</w>": 3886,
      "meats</w>": 3887,
      "exa": 3888,
      "customers</w>": 3889,
      "learning</w>": 3890,
      "windowsill</w>": 3891,
      "ners</w>": 3892,
      "yor</w>": 3893,
      "ously</w>": 3894,
      "rise</w>": 3895,
      "done</w>": 3896,
      "basi": 3897,
      "cathe": 3898,
      "tiss": 3899,
      "geese</w>": 3900,
      "such</w>": 3901,
      "disk</w>": 3902,
      "pathway</w>": 3903,
      "dral</w>": 3904,
      "pit</w>": 3905,
      "ption</w>": 3906,
      "rowing</w>": 3907,
      "places</w>": 3908,
      "pears</w>": 3909,
      "cab</w>": 3910,
      "possi": 3911,
      "wash</w>": 3912,
      "carry</w>": 3913,
      "mountain": 3914,
      "worn</w>": 3915,
      "barbed</w>": 3916,
      "toasted</w>": 3917,
      "printer</w>": 3918,
      "teenage</w>": 3919,
      "itish</w>": 3920,
      "cathedral</w>": 3921,
      "as": 3922,
      "ie</w>": 3923,
      "wee": 3924,
      "ware": 3925,
      "wicker</w>": 3926,
      "towing</w>": 3927,
      "gravy</w>": 3928,
      "note</w>": 3929,
      "divi": 3930,
      "carou": 3931,
      "curi": 3932,
      "deser": 3933,
      "station": 3934,
      "long": 3935,
      "knee</w>": 3936,
      "knees</w>": 3937,
      "competing</w>": 3938,
      "adorned</w>": 3939,
      "festival</w>": 3940,
      "conveyor</w>": 3941,
      "asp": 3942,
      "mun": 3943,
      "sa</w>": 3944,
      "tra</w>": 3945,
      "wning</w>": 3946,
      "lobby</w>": 3947,
      "china</w>": 3948,
      "liage</w>": 3949,
      "shines</w>": 3950,
      "tidy</w>": 3951,
      "puddle</w>": 3952,
      "metro</w>": 3953,
      "scale</w>": 3954,
      "british</w>": 3955,
      "interac": 3956,
      "cobble": 3957,
      "logo</w>": 3958,
      "foliage</w>": 3959,
      "uncooked</w>": 3960,
      "grab</w>": 3961,
      "conven": 3962,
      "andel": 3963,
      "marked</w>": 3964,
      "squatting</w>": 3965,
      "euro": 3966,
      "staircase</w>": 3967,
      "stening</w>": 3968,
      "warehouse</w>": 3969,
      "dden</w>": 3970,
      "ional</w>": 3971,
      "towers</w>": 3972,
      "dot</w>": 3973,
      "closely</w>": 3974,
      "stores</w>": 3975,
      "barbe": 3976,
      "directly</w>": 3977,
      "calico</w>": 3978,
      "venue</w>": 3979,
      "cruise</w>": 3980,
      "depicting</w>": 3981,
      "digital</w>": 3982,
      "carousel</w>": 3983,
      "nur": 3984,
      "oon</w>": 3985,
      "uts</w>": 3986,
      "returning</w>": 3987,
      "lor</w>": 3988,
      "pean</w>": 3989,
      "boardwalk</w>": 3990,
      "tight</w>": 3991,
      "backpacks</w>": 3992,
      "runner</w>": 3993,
      "tube</w>": 3994,
      "cluster</w>": 3995,
      "halt</w>": 3996,
      "chop": 3997,
      "names</w>": 3998,
      "urines</w>": 3999,
      "kettle</w>": 4000,
      "figurines</w>": 4001,
      "skyscra": 4002,
      "tourist</w>": 4003,
      "package</w>": 4004,
      "commode</w>": 4005,
      "stationary</w>": 4006,
      "ef": 4007,
      "sia": 4008,
      "kite": 4009,
      "medium</w>": 4010,
      "fur</w>": 4011,
      "cooks</w>": 4012,
      "dressing</w>": 4013,
      "cloud</w>": 4014,
      "extre": 4015,
      "crate</w>": 4016,
      "headboard</w>": 4017,
      "electrical</w>": 4018,
      "bookcase</w>": 4019,
      "yog": 4020,
      "shrubs</w>": 4021,
      "shuttle</w>": 4022,
      "ostrich</w>": 4023,
      "frying</w>": 4024,
      "sele": 4025,
      "inf": 4026,
      "enter</w>": 4027,
      "fiel": 4028,
      "macar": 4029,
      "blueb": 4030,
      "float</w>": 4031,
      "stalls</w>": 4032,
      "viewed</w>": 4033,
      "deserted</w>": 4034,
      "european</w>": 4035,
      "gger</w>": 4036,
      "ia</w>": 4037,
      "kly</w>": 4038,
      "spic": 4039,
      "were</w>": 4040,
      "int</w>": 4041,
      "inspe": 4042,
      "when</w>": 4043,
      "stand": 4044,
      "rubbing</w>": 4045,
      "die</w>": 4046,
      "make": 4047,
      "suite</w>": 4048,
      "stepping</w>": 4049,
      "swim</w>": 4050,
      "slide</w>": 4051,
      "stretches</w>": 4052,
      "roadside</w>": 4053,
      "opponent</w>": 4054,
      "asphalt</w>": 4055,
      "chopsticks</w>": 4056,
      "ante": 4057,
      "lace</w>": 4058,
      "ern</w>": 4059,
      "coke</w>": 4060,
      "foam</w>": 4061,
      "oni</w>": 4062,
      "keyboards</w>": 4063,
      "help</w>": 4064,
      "cious</w>": 4065,
      "scenic</w>": 4066,
      "balances</w>": 4067,
      "ships</w>": 4068,
      "fingers</w>": 4069,
      "mixture</w>": 4070,
      "farmers</w>": 4071,
      "fl": 4072,
      "fry</w>": 4073,
      "iden": 4074,
      "jel": 4075,
      "ot": 4076,
      "envi": 4077,
      "ica": 4078,
      "unit</w>": 4079,
      "grass": 4080,
      "figu": 4081,
      "maj": 4082,
      "force</w>": 4083,
      "emer": 4084,
      "dual</w>": 4085,
      "stripes</w>": 4086,
      "shield</w>": 4087,
      "intently</w>": 4088,
      "shapes</w>": 4089,
      "balloon</w>": 4090,
      "archite": 4091,
      "antelo": 4092,
      "dit": 4093,
      "knit": 4094,
      "yon": 4095,
      "raw</w>": 4096,
      "racks</w>": 4097,
      "radio</w>": 4098,
      "sion</w>": 4099,
      "podium</w>": 4100,
      "now</w>": 4101,
      "dipping</w>": 4102,
      "mach</w>": 4103,
      "stomach</w>": 4104,
      "show": 4105,
      "shots</w>": 4106,
      "gue": 4107,
      "entering</w>": 4108,
      "crouching</w>": 4109,
      "cubicle</w>": 4110,
      "macaroni</w>": 4111,
      "environ": 4112,
      "ferry</w>": 4113,
      "jee": 4114,
      "zone</w>": 4115,
      "thr": 4116,
      "fog</w>": 4117,
      "partly</w>": 4118,
      "frozen</w>": 4119,
      "planter</w>": 4120,
      "suv</w>": 4121,
      "tee</w>": 4122,
      "descri": 4123,
      "cola</w>": 4124,
      "bicyclist</w>": 4125,
      "paintings</w>": 4126,
      "loaf</w>": 4127,
      "sweet</w>": 4128,
      "starting</w>": 4129,
      "shoulders</w>": 4130,
      "newly</w>": 4131,
      "soldier</w>": 4132,
      "powdered</w>": 4133,
      "limb</w>": 4134,
      "examin": 4135,
      "gour": 4136,
      "ng</w>": 4137,
      "peering</w>": 4138,
      "signa": 4139,
      "checks</w>": 4140,
      "pointed</w>": 4141,
      "class</w>": 4142,
      "uniformed</w>": 4143,
      "mushroom</w>": 4144,
      "artwork</w>": 4145,
      "silhouette</w>": 4146,
      "movie</w>": 4147,
      "ised</w>": 4148,
      "rit": 4149,
      "xed</w>": 4150,
      "zens</w>": 4151,
      "any</w>": 4152,
      "rocking</w>": 4153,
      "stir": 4154,
      "atu": 4155,
      "ened</w>": 4156,
      "pets</w>": 4157,
      "listening</w>": 4158,
      "lum": 4159,
      "ummy</w>": 4160,
      "meat": 4161,
      "faced</w>": 4162,
      "appear</w>": 4163,
      "maroon</w>": 4164,
      "expre": 4165,
      "extra</w>": 4166,
      "crates</w>": 4167,
      "folding</w>": 4168,
      "barrier</w>": 4169,
      "operating</w>": 4170,
      "texting</w>": 4171,
      "policeman</w>": 4172,
      "major</w>": 4173,
      "environment</w>": 4174,
      "signage</w>": 4175,
      "xe": 4176,
      "instal": 4177,
      "ancho": 4178,
      "tagged</w>": 4179,
      "urt</w>": 4180,
      "bul": 4181,
      "shi</w>": 4182,
      "floats</w>": 4183,
      "ddling</w>": 4184,
      "tuxe": 4185,
      "curved</w>": 4186,
      "spacious</w>": 4187,
      "paraso": 4188,
      "handica": 4189,
      "viewing</w>": 4190,
      "muffins</w>": 4191,
      "skillet</w>": 4192,
      "wildlife</w>": 4193,
      "elaborate</w>": 4194,
      "cobblestone</w>": 4195,
      "infant</w>": 4196,
      "thru</w>": 4197,
      "bare": 4198,
      "ey</w>": 4199,
      "eight</w>": 4200,
      "fem": 4201,
      "ppers</w>": 4202,
      "array</w>": 4203,
      "rough</w>": 4204,
      "rals</w>": 4205,
      "cherry</w>": 4206,
      "take": 4207,
      "parts</w>": 4208,
      "pads</w>": 4209,
      "younger</w>": 4210,
      "sushi</w>": 4211,
      "dusty</w>": 4212,
      "stripe</w>": 4213,
      "refrigerators</w>": 4214,
      "hitter</w>": 4215,
      "feeds</w>": 4216,
      "scrat": 4217,
      "midair</w>": 4218,
      "artistic</w>": 4219,
      "blinds</w>": 4220,
      "rectangular</w>": 4221,
      "traditi": 4222,
      "dip</w>": 4223,
      "biker</w>": 4224,
      "hiking</w>": 4225,
      "stacks</w>": 4226,
      "spotted</w>": 4227,
      "clearing</w>": 4228,
      "speeding</w>": 4229,
      "rubber</w>": 4230,
      "remodeled</w>": 4231,
      "gy</w>": 4232,
      "start</w>": 4233,
      "locked</w>": 4234,
      "holi": 4235,
      "dozen</w>": 4236,
      "chandel": 4237,
      "paja": 4238,
      "cool</w>": 4239,
      "crackers</w>": 4240,
      "blurred</w>": 4241,
      "outfits</w>": 4242,
      "barrel</w>": 4243,
      "grandfather</w>": 4244,
      "alcohol</w>": 4245,
      "figures</w>": 4246,
      "fair</w>": 4247,
      "tying</w>": 4248,
      "ities</w>": 4249,
      "anese</w>": 4250,
      "bee</w>": 4251,
      "zzy</w>": 4252,
      "bowling</w>": 4253,
      "diner</w>": 4254,
      "goal</w>": 4255,
      "sofas</w>": 4256,
      "cupboard</w>": 4257,
      "butter": 4258,
      "alized</w>": 4259,
      "needs</w>": 4260,
      "skinny</w>": 4261,
      "cer</w>": 4262,
      "rup</w>": 4263,
      "lain</w>": 4264,
      "lodge</w>": 4265,
      "else</w>": 4266,
      "pot": 4267,
      "pocket</w>": 4268,
      "gaming</w>": 4269,
      "bigger</w>": 4270,
      "cub</w>": 4271,
      "spatu": 4272,
      "chick": 4273,
      "touch</w>": 4274,
      "flipping</w>": 4275,
      "indian</w>": 4276,
      "volley</w>": 4277,
      "shrubb": 4278,
      "ble": 4279,
      "co</w>": 4280,
      "iss": 4281,
      "py</w>": 4282,
      "repair</w>": 4283,
      "lated</w>": 4284,
      "ently</w>": 4285,
      "unfinished</w>": 4286,
      "file</w>": 4287,
      "walled</w>": 4288,
      "pipes</w>": 4289,
      "banner</w>": 4290,
      "spots</w>": 4291,
      "balance</w>": 4292,
      "carriages</w>": 4293,
      "stunts</w>": 4294,
      "melon</w>": 4295,
      "barren</w>": 4296,
      "nightstand</w>": 4297,
      "engaged</w>": 4298,
      "attractive</w>": 4299,
      "japanese</w>": 4300,
      "tissue</w>": 4301,
      "identical</w>": 4302,
      "jeep</w>": 4303,
      "traditional</w>": 4304,
      "awaiting</w>": 4305,
      "band": 4306,
      "dancing</w>": 4307,
      "mous</w>": 4308,
      "mmed</w>": 4309,
      "ples</w>": 4310,
      "plush</w>": 4311,
      "stair</w>": 4312,
      "bambo": 4313,
      "bulls</w>": 4314,
      "ung</w>": 4315,
      "united</w>": 4316,
      "noon</w>": 4317,
      "mote</w>": 4318,
      "maker</w>": 4319,
      "motori": 4320,
      "flow": 4321,
      "bunny</w>": 4322,
      "pitched</w>": 4323,
      "rong</w>": 4324,
      "coast</w>": 4325,
      "syrup</w>": 4326,
      "sprinkled</w>": 4327,
      "farmer</w>": 4328,
      "weeds</w>": 4329,
      "shrubbery</w>": 4330,
      "bamboo</w>": 4331,
      "boun": 4332,
      "ov": 4333,
      "otic</w>": 4334,
      "sad</w>": 4335,
      "wel": 4336,
      "robe</w>": 4337,
      "rabb": 4338,
      "necks</w>": 4339,
      "forested</w>": 4340,
      "tiger</w>": 4341,
      "notes</w>": 4342,
      "celain</w>": 4343,
      "bicyclists</w>": 4344,
      "upward</w>": 4345,
      "porcelain</w>": 4346,
      "glowing</w>": 4347,
      "company</w>": 4348,
      "snugg": 4349,
      "mountainous</w>": 4350,
      "gourmet</w>": 4351,
      "acti": 4352,
      "apart</w>": 4353,
      "youth</w>": 4354,
      "ared</w>": 4355,
      "stump</w>": 4356,
      "nest</w>": 4357,
      "capped</w>": 4358,
      "demon": 4359,
      "pic</w>": 4360,
      "toile": 4361,
      "cycles</w>": 4362,
      "skiier</w>": 4363,
      "opens</w>": 4364,
      "somewhere</w>": 4365,
      "menu</w>": 4366,
      "cooling</w>": 4367,
      "jelly</w>": 4368,
      "pajamas</w>": 4369,
      "care</w>": 4370,
      "dun": 4371,
      "wand": 4372,
      "yor": 4373,
      "reno": 4374,
      "alarm</w>": 4375,
      "coll": 4376,
      "stant</w>": 4377,
      "powered</w>": 4378,
      "motel</w>": 4379,
      "map</w>": 4380,
      "pork</w>": 4381,
      "pengu": 4382,
      "moored</w>": 4383,
      "yogurt</w>": 4384,
      "dless</w>": 4385,
      "gin": 4386,
      "plo": 4387,
      "pple</w>": 4388,
      "pump": 4389,
      "san</w>": 4390,
      "ye": 4391,
      "arch</w>": 4392,
      "cham": 4393,
      "sor": 4394,
      "cauti": 4395,
      "wall": 4396,
      "horned</w>": 4397,
      "stripped</w>": 4398,
      "excit": 4399,
      "grizz": 4400,
      "crouched</w>": 4401,
      "teenagers</w>": 4402,
      "selection</w>": 4403,
      "otto": 4404,
      "chickens</w>": 4405,
      "groo": 4406,
      "lo</w>": 4407,
      "ry": 4408,
      "warm</w>": 4409,
      "iner</w>": 4410,
      "tiered</w>": 4411,
      "nor": 4412,
      "umin": 4413,
      "letting</w>": 4414,
      "treats</w>": 4415,
      "engines</w>": 4416,
      "towed</w>": 4417,
      "patro": 4418,
      "appliance</w>": 4419,
      "harness</w>": 4420,
      "tici": 4421,
      "buttons</w>": 4422,
      "peas</w>": 4423,
      "sausages</w>": 4424,
      "gliding</w>": 4425,
      "billboard</w>": 4426,
      "spatula</w>": 4427,
      "ave</w>": 4428,
      "avenue</w>": 4429,
      "gout</w>": 4430,
      "kic": 4431,
      "strings</w>": 4432,
      "ram</w>": 4433,
      "altered</w>": 4434,
      "alumin": 4435,
      "silly</w>": 4436,
      "entree</w>": 4437,
      "eagle</w>": 4438,
      "tails</w>": 4439,
      "socks</w>": 4440,
      "lime</w>": 4441,
      "shine</w>": 4442,
      "surpri": 4443,
      "cubs</w>": 4444,
      "brief": 4445,
      "gos</w>": 4446,
      "handles</w>": 4447,
      "falls</w>": 4448,
      "letters</w>": 4449,
      "penc": 4450,
      "swung</w>": 4451,
      "sharp</w>": 4452,
      "possibly</w>": 4453,
      "blea": 4454,
      "hin": 4455,
      "infla": 4456,
      "thre": 4457,
      "coats</w>": 4458,
      "carpe": 4459,
      "biscu": 4460,
      "hilly</w>": 4461,
      "mill</w>": 4462,
      "navy</w>": 4463,
      "transport</w>": 4464,
      "breaking</w>": 4465,
      "suburban</w>": 4466,
      "called</w>": 4467,
      "seaso": 4468,
      "intera": 4469,
      "caption</w>": 4470,
      "windshield</w>": 4471,
      "pigeon</w>": 4472,
      "wheelchair</w>": 4473,
      "lifting</w>": 4474,
      "happily</w>": 4475,
      "bble</w>": 4476,
      "free</w>": 4477,
      "vity</w>": 4478,
      "vand": 4479,
      "alo": 4480,
      "dozens</w>": 4481,
      "unripe</w>": 4482,
      "pact</w>": 4483,
      "memo": 4484,
      "playground</w>": 4485,
      "cutter</w>": 4486,
      "fuzzy</w>": 4487,
      "flowing</w>": 4488,
      "gun</w>": 4489,
      "halves</w>": 4490,
      "shado": 4491,
      "shaggy</w>": 4492,
      "garlic</w>": 4493,
      "hut</w>": 4494,
      "squa": 4495,
      "roads</w>": 4496,
      "after": 4497,
      "junk</w>": 4498,
      "blood</w>": 4499,
      "necktie</w>": 4500,
      "females</w>": 4501,
      "chandelier</w>": 4502,
      "far": 4503,
      "oil</w>": 4504,
      "aling</w>": 4505,
      "hori": 4506,
      "shre": 4507,
      "shings</w>": 4508,
      "perches</w>": 4509,
      "decked</w>": 4510,
      "dim</w>": 4511,
      "celery</w>": 4512,
      "shake</w>": 4513,
      "firetruck</w>": 4514,
      "claim</w>": 4515,
      "blocking</w>": 4516,
      "equipped</w>": 4517,
      "stained</w>": 4518,
      "ssemb": 4519,
      "pottery</w>": 4520,
      "ovens</w>": 4521,
      "horiz": 4522,
      "situ": 4523,
      "holes</w>": 4524,
      "page</w>": 4525,
      "money</w>": 4526,
      "skates</w>": 4527,
      "mean</w>": 4528,
      "whipped</w>": 4529,
      "cards</w>": 4530,
      "airy</w>": 4531,
      "bends</w>": 4532,
      "mural</w>": 4533,
      "jacent</w>": 4534,
      "check</w>": 4535,
      "adjacent</w>": 4536,
      "steer</w>": 4537,
      "heels</w>": 4538,
      "wrap</w>": 4539,
      "grouped</w>": 4540,
      "separated</w>": 4541,
      "furnishings</w>": 4542,
      "feathers</w>": 4543,
      "avoca": 4544,
      "hipster</w>": 4545,
      "tuxedo</w>": 4546,
      "call</w>": 4547,
      "inning</w>": 4548,
      "ickly</w>": 4549,
      "part": 4550,
      "grasses</w>": 4551,
      "poised</w>": 4552,
      "smart": 4553,
      "hanger</w>": 4554,
      "mixing</w>": 4555,
      "dama": 4556,
      "dugout</w>": 4557,
      "emplo": 4558,
      "pitchers</w>": 4559,
      "pillar</w>": 4560,
      "mbers</w>": 4561,
      "teaching</w>": 4562,
      "directing</w>": 4563,
      "symbo": 4564,
      "hoodie</w>": 4565,
      "comfortable</w>": 4566,
      "followed</w>": 4567,
      "plenty</w>": 4568,
      "plugged</w>": 4569,
      "donkey</w>": 4570,
      "guests</w>": 4571,
      "ottoman</w>": 4572,
      "aluminum</w>": 4573,
      "afternoon</w>": 4574,
      "det</w>": 4575,
      "arly</w>": 4576,
      "role</w>": 4577,
      "relish</w>": 4578,
      "local</w>": 4579,
      "colum": 4580,
      "bum": 4581,
      "theme</w>": 4582,
      "compact</w>": 4583,
      "outstretched</w>": 4584,
      "bidet</w>": 4585,
      "cept</w>": 4586,
      "treat</w>": 4587,
      "panel</w>": 4588,
      "portion</w>": 4589,
      "blocks</w>": 4590,
      "wheeled</w>": 4591,
      "plan</w>": 4592,
      "german</w>": 4593,
      "toiletries</w>": 4594,
      "york</w>": 4595,
      "rb</w>": 4596,
      "ana</w>": 4597,
      "retri": 4598,
      "refe": 4599,
      "stems</w>": 4600,
      "ridding</w>": 4601,
      "chal": 4602,
      "tral</w>": 4603,
      "tram</w>": 4604,
      "unloading</w>": 4605,
      "mor": 4606,
      "shoo": 4607,
      "hydrants</w>": 4608,
      "lead</w>": 4609,
      "cabbage</w>": 4610,
      "steering</w>": 4611,
      "special</w>": 4612,
      "delta</w>": 4613,
      "speaker</w>": 4614,
      "accents</w>": 4615,
      "setup</w>": 4616,
      "interacting</w>": 4617,
      "excited</w>": 4618,
      "grizzly</w>": 4619,
      "interactive</w>": 4620,
      "vandalized</w>": 4621,
      "bes</w>": 4622,
      "cy": 4623,
      "cin": 4624,
      "cil": 4625,
      "dan": 4626,
      "cops</w>": 4627,
      "news</w>": 4628,
      "popu": 4629,
      "watched</w>": 4630,
      "cyclist</w>": 4631,
      "quickly</w>": 4632,
      "stache</w>": 4633,
      "driven</w>": 4634,
      "club</w>": 4635,
      "portable</w>": 4636,
      "parasailing</w>": 4637,
      "slides</w>": 4638,
      "sweatshirt</w>": 4639,
      "priv": 4640,
      "gym</w>": 4641,
      "antelope</w>": 4642,
      "barefoot</w>": 4643,
      "employe": 4644,
      "cole": 4645,
      "beyon": 4646,
      "store": 4647,
      "text</w>": 4648,
      "manne": 4649,
      "gus</w>": 4650,
      "dinning</w>": 4651,
      "trip</w>": 4652,
      "trim</w>": 4653,
      "leave</w>": 4654,
      "windsurfing</w>": 4655,
      "barbecu": 4656,
      "rabbit</w>": 4657,
      "demonstra": 4658,
      "beyond</w>": 4659,
      "fer": 4660,
      "fran": 4661,
      "label": 4662,
      "dolls</w>": 4663,
      "casse": 4664,
      "peri": 4665,
      "poking</w>": 4666,
      "wai": 4667,
      "sup": 4668,
      "flowered</w>": 4669,
      "herbs</w>": 4670,
      "bedding</w>": 4671,
      "crest</w>": 4672,
      "kneels</w>": 4673,
      "waterfall</w>": 4674,
      "gazel": 4675,
      "raising</w>": 4676,
      "installed</w>": 4677,
      "colli</w>": 4678,
      "coleslaw</w>": 4679,
      "mannequ": 4680,
      "assemb": 4681,
      "dant</w>": 4682,
      "gne</w>": 4683,
      "spro": 4684,
      "wly</w>": 4685,
      "rim</w>": 4686,
      "dom</w>": 4687,
      "peeling</w>": 4688,
      "training</w>": 4689,
      "lands</w>": 4690,
      "legged</w>": 4691,
      "members</w>": 4692,
      "carved</w>": 4693,
      "west</w>": 4694,
      "dresses</w>": 4695,
      "prop</w>": 4696,
      "sleek</w>": 4697,
      "swans</w>": 4698,
      "provide</w>": 4699,
      "pineapple</w>": 4700,
      "champa": 4701,
      "gating</w>": 4702,
      "ian</w>": 4703,
      "tten</w>": 4704,
      "wre": 4705,
      "stern</w>": 4706,
      "cade</w>": 4707,
      "strea": 4708,
      "distant</w>": 4709,
      "suring</w>": 4710,
      "black": 4711,
      "quo": 4712,
      "bricks</w>": 4713,
      "presi": 4714,
      "vast</w>": 4715,
      "haw": 4716,
      "corral</w>": 4717,
      "exit</w>": 4718,
      "ramps</w>": 4719,
      "melted</w>": 4720,
      "layered</w>": 4721,
      "splash</w>": 4722,
      "character</w>": 4723,
      "occu": 4724,
      "cucumbers</w>": 4725,
      "holiday</w>": 4726,
      "wandering</w>": 4727,
      "ticipat": 4728,
      "briefcase</w>": 4729,
      "situated</w>": 4730,
      "retrie": 4731,
      "private</w>": 4732,
      "ipod</w>": 4733,
      "sled</w>": 4734,
      "vd</w>": 4735,
      "vic": 4736,
      "incoming</w>": 4737,
      "though</w>": 4738,
      "area": 4739,
      "stones</w>": 4740,
      "rasp": 4741,
      "dor": 4742,
      "unable</w>": 4743,
      "shy</w>": 4744,
      "perform</w>": 4745,
      "fron": 4746,
      "times</w>": 4747,
      "could</w>": 4748,
      "lego</w>": 4749,
      "mex": 4750,
      "stock</w>": 4751,
      "stocked</w>": 4752,
      "airline</w>": 4753,
      "discu": 4754,
      "leaps</w>": 4755,
      "kiw": 4756,
      "dering</w>": 4757,
      "measuring</w>": 4758,
      "creat": 4759,
      "swan</w>": 4760,
      "slab</w>": 4761,
      "tortil": 4762,
      "route</w>": 4763,
      "ington</w>": 4764,
      "contem": 4765,
      "anchored</w>": 4766,
      "inflatable</w>": 4767,
      "dy": 4768,
      "price</w>": 4769,
      "sive</w>": 4770,
      "cock": 4771,
      "icy</w>": 4772,
      "shboard</w>": 4773,
      "saddle</w>": 4774,
      "frisbe</w>": 4775,
      "backwards</w>": 4776,
      "dashboard</w>": 4777,
      "cord</w>": 4778,
      "chopping</w>": 4779,
      "carrier</w>": 4780,
      "roast</w>": 4781,
      "rolled</w>": 4782,
      "hear": 4783,
      "nearly</w>": 4784,
      "appeti": 4785,
      "peace</w>": 4786,
      "erials</w>": 4787,
      "sculptures</w>": 4788,
      "swee": 4789,
      "location</w>": 4790,
      "crouches</w>": 4791,
      "browni": 4792,
      "kayak</w>": 4793,
      "wallpaper</w>": 4794,
      "rhin": 4795,
      "slow</w>": 4796,
      "ste</w>": 4797,
      "stew</w>": 4798,
      "sewing</w>": 4799,
      "caged</w>": 4800,
      "lion</w>": 4801,
      "share</w>": 4802,
      "tires</w>": 4803,
      "pirate</w>": 4804,
      "mese</w>": 4805,
      "croiss": 4806,
      "conc": 4807,
      "strike</w>": 4808,
      "paragus</w>": 4809,
      "smiley</w>": 4810,
      "machines</w>": 4811,
      "change</w>": 4812,
      "numerals</w>": 4813,
      "soaked</w>": 4814,
      "those</w>": 4815,
      "cheesecake</w>": 4816,
      "asparagus</w>": 4817,
      "smartphone</w>": 4818,
      "cant</w>": 4819,
      "gates</w>": 4820,
      "hur": 4821,
      "ym": 4822,
      "pay</w>": 4823,
      "lars</w>": 4824,
      "outfield</w>": 4825,
      "biplane</w>": 4826,
      "bend</w>": 4827,
      "mantle</w>": 4828,
      "heavil": 4829,
      "tering</w>": 4830,
      "slowly</w>": 4831,
      "material</w>": 4832,
      "materials</w>": 4833,
      "travelers</w>": 4834,
      "speci": 4835,
      "bbq</w>": 4836,
      "handbag</w>": 4837,
      "peace": 4838,
      "keep</w>": 4839,
      "creek</w>": 4840,
      "champagne</w>": 4841,
      "heavily</w>": 4842,
      "ag": 4843,
      "etry</w>": 4844,
      "gly</w>": 4845,
      "iers</w>": 4846,
      "mber</w>": 4847,
      "stare</w>": 4848,
      "cages</w>": 4849,
      "liqu": 4850,
      "smelling</w>": 4851,
      "ghet": 4852,
      "diving</w>": 4853,
      "mail</w>": 4854,
      "pushed</w>": 4855,
      "meals</w>": 4856,
      "stored</w>": 4857,
      "contra": 4858,
      "stating</w>": 4859,
      "studio</w>": 4860,
      "helps</w>": 4861,
      "volle": 4862,
      "cooler</w>": 4863,
      "presentation</w>": 4864,
      "flatbed</w>": 4865,
      "knitted</w>": 4866,
      "caution</w>": 4867,
      "surprised</w>": 4868,
      "areas</w>": 4869,
      "gated</w>": 4870,
      "oval</w>": 4871,
      "yar": 4872,
      "cock</w>": 4873,
      "coca</w>": 4874,
      "won": 4875,
      "paper": 4876,
      "clown</w>": 4877,
      "wax</w>": 4878,
      "pus</w>": 4879,
      "horn</w>": 4880,
      "compartment</w>": 4881,
      "cyclists</w>": 4882,
      "cere": 4883,
      "opposing</w>": 4884,
      "maneu": 4885,
      "emb": 4886,
      "mustache</w>": 4887,
      "ming": 4888,
      "squir": 4889,
      "mixer</w>": 4890,
      "washington</w>": 4891,
      "combination</w>": 4892,
      "takeoff</w>": 4893,
      "threw</w>": 4894,
      "gn": 4895,
      "bot</w>": 4896,
      "plated</w>": 4897,
      "taped</w>": 4898,
      "ica</w>": 4899,
      "tably</w>": 4900,
      "landed</w>": 4901,
      "lets</w>": 4902,
      "airfield</w>": 4903,
      "tured</w>": 4904,
      "seri": 4905,
      "colorfully</w>": 4906,
      "shaded</w>": 4907,
      "dark": 4908,
      "saucer</w>": 4909,
      "huddled</w>": 4910,
      "cana": 4911,
      "touches</w>": 4912,
      "gency</w>": 4913,
      "bites</w>": 4914,
      "buffal": 4915,
      "sparse</w>": 4916,
      "bullet</w>": 4917,
      "emergency</w>": 4918,
      "casserole</w>": 4919,
      "ai": 4920,
      "gallo": 4921,
      "mb</w>": 4922,
      "oa": 4923,
      "upper</w>": 4924,
      "intri": 4925,
      "information</w>": 4926,
      "thats</w>": 4927,
      "rema": 4928,
      "lower</w>": 4929,
      "soaring</w>": 4930,
      "paralle": 4931,
      "timate</w>": 4932,
      "mess</w>": 4933,
      "theat": 4934,
      "motorbikes</w>": 4935,
      "filling</w>": 4936,
      "lonely</w>": 4937,
      "tulips</w>": 4938,
      "cabinetry</w>": 4939,
      "singing</w>": 4940,
      "canoes</w>": 4941,
      "styled</w>": 4942,
      "chains</w>": 4943,
      "stretch</w>": 4944,
      "comfortably</w>": 4945,
      "icial</w>": 4946,
      "instruments</w>": 4947,
      "jockeys</w>": 4948,
      "powder</w>": 4949,
      "athlete</w>": 4950,
      "convention</w>": 4951,
      "fields</w>": 4952,
      "grassland</w>": 4953,
      "parasol</w>": 4954,
      "penguin</w>": 4955,
      "bleachers</w>": 4956,
      "liquor</w>": 4957,
      "yarn</w>": 4958,
      "parallel</w>": 4959,
      "mely</w>": 4960,
      "oba": 4961,
      "swa": 4962,
      "yball</w>": 4963,
      "rodeo</w>": 4964,
      "relea": 4965,
      "lab</w>": 4966,
      "rams</w>": 4967,
      "cot": 4968,
      "oncoming</w>": 4969,
      "perfe": 4970,
      "nothing</w>": 4971,
      "tens</w>": 4972,
      "distri": 4973,
      "give</w>": 4974,
      "skatepark</w>": 4975,
      "visit": 4976,
      "bron": 4977,
      "olym": 4978,
      "tucked</w>": 4979,
      "cords</w>": 4980,
      "spy</w>": 4981,
      "polo</w>": 4982,
      "spaghet": 4983,
      "shelving</w>": 4984,
      "sporting</w>": 4985,
      "bookshelves</w>": 4986,
      "presents</w>": 4987,
      "protective</w>": 4988,
      "celebration</w>": 4989,
      "angry</w>": 4990,
      "medical</w>": 4991,
      "historic</w>": 4992,
      "blueberries</w>": 4993,
      "labeled</w>": 4994,
      "volleyball</w>": 4995,
      "canadian</w>": 4996,
      "iphone</w>": 4997,
      "zi": 4998,
      "simi": 4999,
      "coin</w>": 5000,
      "picks</w>": 5001,
      "quar": 5002,
      "half": 5003,
      "sauces</w>": 5004,
      "directional</w>": 5005,
      "porary</w>": 5006,
      "letely</w>": 5007,
      "completely</w>": 5008,
      "napkins</w>": 5009,
      "characters</w>": 5010,
      "streetlight</w>": 5011,
      "carpeted</w>": 5012,
      "hawk</w>": 5013,
      "obama</w>": 5014,
      "spaghetti</w>": 5015,
      "esca": 5016,
      "fit": 5017,
      "ficial</w>": 5018,
      "nine</w>": 5019,
      "bag": 5020,
      "peds</w>": 5021,
      "best</w>": 5022,
      "perch</w>": 5023,
      "fied</w>": 5024,
      "mopeds</w>": 5025,
      "surround</w>": 5026,
      "medi": 5027,
      "zzle</w>": 5028,
      "super": 5029,
      "ceme": 5030,
      "sai": 5031,
      "crew</w>": 5032,
      "house": 5033,
      "offici": 5034,
      "frames</w>": 5035,
      "veggie</w>": 5036,
      "relaxes</w>": 5037,
      "college</w>": 5038,
      "taxi": 5039,
      "beginning</w>": 5040,
      "ultimate</w>": 5041,
      "isle</w>": 5042,
      "summer</w>": 5043,
      "extremely</w>": 5044,
      "squash</w>": 5045,
      "darkened</w>": 5046,
      "similar</w>": 5047,
      "ascen": 5048,
      "dad</w>": 5049,
      "even</w>": 5050,
      "heat": 5051,
      "kn": 5052,
      "lite</w>": 5053,
      "lens</w>": 5054,
      "non</w>": 5055,
      "rapi": 5056,
      "sku": 5057,
      "parents</w>": 5058,
      "pia</w>": 5059,
      "pied</w>": 5060,
      "greeting</w>": 5061,
      "brocolli</w>": 5062,
      "picked</w>": 5063,
      "states</w>": 5064,
      "appar": 5065,
      "graph": 5066,
      "dragon</w>": 5067,
      "featured</w>": 5068,
      "camping</w>": 5069,
      "extends</w>": 5070,
      "lifts</w>": 5071,
      "recei": 5072,
      "policemen</w>": 5073,
      "basil</w>": 5074,
      "siamese</w>": 5075,
      "scratching</w>": 5076,
      "referee</w>": 5077,
      "barbecue</w>": 5078,
      "dal</w>": 5079,
      "of": 5080,
      "plea": 5081,
      "wrest": 5082,
      "inve": 5083,
      "then</w>": 5084,
      "oufla": 5085,
      "rises</w>": 5086,
      "nest": 5087,
      "sex": 5088,
      "strewn</w>": 5089,
      "moon</w>": 5090,
      "may</w>": 5091,
      "friz": 5092,
      "wool</w>": 5093,
      "deserts</w>": 5094,
      "jam</w>": 5095,
      "clearly</w>": 5096,
      "crashing</w>": 5097,
      "smooth": 5098,
      "watermelon</w>": 5099,
      "printed</w>": 5100,
      "camoufla": 5101,
      "glides</w>": 5102,
      "musical</w>": 5103,
      "grand</w>": 5104,
      "waffles</w>": 5105,
      "ceremon": 5106,
      "buffalo</w>": 5107,
      "bins</w>": 5108,
      "kna": 5109,
      "tum": 5110,
      "honey</w>": 5111,
      "need</w>": 5112,
      "cable</w>": 5113,
      "pig</w>": 5114,
      "care": 5115,
      "tech": 5116,
      "quite</w>": 5117,
      "queen</w>": 5118,
      "mix</w>": 5119,
      "somebody</w>": 5120,
      "preparation</w>": 5121,
      "tarp</w>": 5122,
      "steamed</w>": 5123,
      "burning</w>": 5124,
      "tanger": 5125,
      "belly</w>": 5126,
      "sold</w>": 5127,
      "olive</w>": 5128,
      "paddles</w>": 5129,
      "artificial</w>": 5130,
      "nighttime</w>": 5131,
      "begins</w>": 5132,
      "arriving</w>": 5133,
      "curious</w>": 5134,
      "shredded</w>": 5135,
      "mexican</w>": 5136,
      "amid</w>": 5137,
      "cles</w>": 5138,
      "plow</w>": 5139,
      "yet</w>": 5140,
      "arched</w>": 5141,
      "regular</w>": 5142,
      "department</w>": 5143,
      "gradu": 5144,
      "fish": 5145,
      "lux": 5146,
      "tethered</w>": 5147,
      "fill</w>": 5148,
      "mounta": 5149,
      "mugs</w>": 5150,
      "curvy</w>": 5151,
      "turquo": 5152,
      "rounding</w>": 5153,
      "exposed</w>": 5154,
      "draped</w>": 5155,
      "crafts</w>": 5156,
      "person": 5157,
      "gazing</w>": 5158,
      "competitive</w>": 5159,
      "rently</w>": 5160,
      "wheeler</w>": 5161,
      "everyone</w>": 5162,
      "everything</w>": 5163,
      "makeup</w>": 5164,
      "butterfly</w>": 5165,
      "motorized</w>": 5166,
      "turquoise</w>": 5167,
      "ago</w>": 5168,
      "sat": 5169,
      "telling</w>": 5170,
      "vir": 5171,
      "anced</w>": 5172,
      "artic": 5173,
      "stars</w>": 5174,
      "bon": 5175,
      "cozy</w>": 5176,
      "easy</w>": 5177,
      "diff": 5178,
      "windy</w>": 5179,
      "metro": 5180,
      "carni": 5181,
      "say</w>": 5182,
      "liners</w>": 5183,
      "ddles</w>": 5184,
      "spring</w>": 5185,
      "cloudless</w>": 5186,
      "exter": 5187,
      "balanced</w>": 5188,
      "projector</w>": 5189,
      "humming": 5190,
      "architecture</w>": 5191,
      "stirring</w>": 5192,
      "occupied</w>": 5193,
      "mountainside</w>": 5194,
      "carnival</w>": 5195,
      "cry": 5196,
      "kit</w>": 5197,
      "ly": 5198,
      "mally</w>": 5199,
      "ph": 5200,
      "wan": 5201,
      "rotten</w>": 5202,
      "today</w>": 5203,
      "tool</w>": 5204,
      "toned</w>": 5205,
      "illa</w>": 5206,
      "buckets</w>": 5207,
      "cafe": 5208,
      "wallet</w>": 5209,
      "crown</w>": 5210,
      "skiiers</w>": 5211,
      "dai": 5212,
      "jumped</w>": 5213,
      "tug</w>": 5214,
      "batters</w>": 5215,
      "follows</w>": 5216,
      "warming</w>": 5217,
      "finish</w>": 5218,
      "countertops</w>": 5219,
      "early</w>": 5220,
      "seeing</w>": 5221,
      "damaged</w>": 5222,
      "storefront</w>": 5223,
      "president</w>": 5224,
      "victo": 5225,
      "rd</w>": 5226,
      "ini</w>": 5227,
      "ations</w>": 5228,
      "sepia</w>": 5229,
      "grabs</w>": 5230,
      "tier</w>": 5231,
      "gest": 5232,
      "wise</w>": 5233,
      "safar": 5234,
      "scru": 5235,
      "vacant</w>": 5236,
      "teria</w>": 5237,
      "gerator</w>": 5238,
      "flav": 5239,
      "navi": 5240,
      "enjoys</w>": 5241,
      "varieties</w>": 5242,
      "deli</w>": 5243,
      "taxis</w>": 5244,
      "barrels</w>": 5245,
      "know</w>": 5246,
      "consists</w>": 5247,
      "limit</w>": 5248,
      "everywhere</w>": 5249,
      "automobile</w>": 5250,
      "kicks</w>": 5251,
      "sprouts</w>": 5252,
      "tortilla</w>": 5253,
      "district</w>": 5254,
      "cafeteria</w>": 5255,
      "zers</w>": 5256,
      "regi": 5257,
      "tide</w>": 5258,
      "gad": 5259,
      "lanes</w>": 5260,
      "random</w>": 5261,
      "airways</w>": 5262,
      "filed</w>": 5263,
      "bundle</w>": 5264,
      "passed</w>": 5265,
      "races</w>": 5266,
      "striking</w>": 5267,
      "removed</w>": 5268,
      "choppy</w>": 5269,
      "exiting</w>": 5270,
      "shift</w>": 5271,
      "border</w>": 5272,
      "relax</w>": 5273,
      "propellers</w>": 5274,
      "present</w>": 5275,
      "changing</w>": 5276,
      "partments</w>": 5277,
      "raspberries</w>": 5278,
      "nestled</w>": 5279,
      "safari</w>": 5280,
      "aqu": 5281,
      "boul": 5282,
      "cd</w>": 5283,
      "flan": 5284,
      "wling</w>": 5285,
      "reve": 5286,
      "lapi": 5287,
      "sided</w>": 5288,
      "rising</w>": 5289,
      "peers</w>": 5290,
      "trash": 5291,
      "trainer</w>": 5292,
      "pard</w>": 5293,
      "holders</w>": 5294,
      "tired</w>": 5295,
      "nut</w>": 5296,
      "somewhat</w>": 5297,
      "merged</w>": 5298,
      "marker</w>": 5299,
      "microwaves</w>": 5300,
      "hello</w>": 5301,
      "sanding</w>": 5302,
      "smothered</w>": 5303,
      "businesses</w>": 5304,
      "trails</w>": 5305,
      "compani": 5306,
      "camper</w>": 5307,
      "sniffs</w>": 5308,
      "student</w>": 5309,
      "project</w>": 5310,
      "cameras</w>": 5311,
      "avocado</w>": 5312,
      "dorm</w>": 5313,
      "cemetery</w>": 5314,
      "lapidated</w>": 5315,
      "dance</w>": 5316,
      "dairy</w>": 5317,
      "eque": 5318,
      "gin</w>": 5319,
      "kings</w>": 5320,
      "pun": 5321,
      "reless</w>": 5322,
      "bad</w>": 5323,
      "bucks</w>": 5324,
      "debr": 5325,
      "posters</w>": 5326,
      "vests</w>": 5327,
      "handed</w>": 5328,
      "eless</w>": 5329,
      "faded</w>": 5330,
      "facil": 5331,
      "ddly</w>": 5332,
      "dust</w>": 5333,
      "mirrored</w>": 5334,
      "flamin": 5335,
      "milking</w>": 5336,
      "shady</w>": 5337,
      "tattoo": 5338,
      "sells</w>": 5339,
      "compete</w>": 5340,
      "wetsuits</w>": 5341,
      "magazines</w>": 5342,
      "skills</w>": 5343,
      "depicts</w>": 5344,
      "garnish</w>": 5345,
      "spices</w>": 5346,
      "shadows</w>": 5347,
      "morning</w>": 5348,
      "kiwi</w>": 5349,
      "knacks</w>": 5350,
      "hummingbird</w>": 5351,
      "equestri": 5352,
      "debris</w>": 5353,
      "aff": 5354,
      "assi": 5355,
      "dru": 5356,
      "est</w>": 5357,
      "mped</w>": 5358,
      "itali": 5359,
      "row": 5360,
      "belong": 5361,
      "parent</w>": 5362,
      "limes</w>": 5363,
      "shell</w>": 5364,
      "carton</w>": 5365,
      "wireless</w>": 5366,
      "curly</w>": 5367,
      "expan": 5368,
      "underwear</w>": 5369,
      "paneled</w>": 5370,
      "submerged</w>": 5371,
      "shep": 5372,
      "hook</w>": 5373,
      "earth</w>": 5374,
      "politan</w>": 5375,
      "bumper</w>": 5376,
      "investi": 5377,
      "sexy</w>": 5378,
      "belongings</w>": 5379,
      "clad</w>": 5380,
      "oddly</w>": 5381,
      "sen": 5382,
      "zard</w>": 5383,
      "stro": 5384,
      "lamp": 5385,
      "radi": 5386,
      "plaque</w>": 5387,
      "cause</w>": 5388,
      "rus</w>": 5389,
      "ghts</w>": 5390,
      "mama</w>": 5391,
      "winds</w>": 5392,
      "pup": 5393,
      "condu": 5394,
      "bricked</w>": 5395,
      "flavo": 5396,
      "shaving</w>": 5397,
      "breast</w>": 5398,
      "brand</w>": 5399,
      "national</w>": 5400,
      "lounges</w>": 5401,
      "pours</w>": 5402,
      "speeds</w>": 5403,
      "garnished</w>": 5404,
      "cucumber</w>": 5405,
      "kiteboarding</w>": 5406,
      "gazelle</w>": 5407,
      "serious</w>": 5408,
      "smoothie</w>": 5409,
      "crystal</w>": 5410,
      "facility</w>": 5411,
      "flavored</w>": 5412,
      "blows</w>": 5413,
      "dal": 5414,
      "dump": 5415,
      "era": 5416,
      "leng": 5417,
      "ox": 5418,
      "sword</w>": 5419,
      "arrows</w>": 5420,
      "strong</w>": 5421,
      "rather</w>": 5422,
      "homes</w>": 5423,
      "dotted</w>": 5424,
      "wok</w>": 5425,
      "buss</w>": 5426,
      "secur": 5427,
      "live": 5428,
      "grape": 5429,
      "velo": 5430,
      "dilapidated</w>": 5431,
      "main": 5432,
      "lance</w>": 5433,
      "mesh</w>": 5434,
      "stock": 5435,
      "cushi": 5436,
      "manu": 5437,
      "must</w>": 5438,
      "kiss</w>": 5439,
      "racer</w>": 5440,
      "crowds</w>": 5441,
      "marine</w>": 5442,
      "decorating</w>": 5443,
      "overlooks</w>": 5444,
      "pano": 5445,
      "bbles</w>": 5446,
      "shells</w>": 5447,
      "burnt</w>": 5448,
      "yach": 5449,
      "grouping</w>": 5450,
      "indicates</w>": 5451,
      "historical</w>": 5452,
      "nursing</w>": 5453,
      "skyscraper</w>": 5454,
      "expression</w>": 5455,
      "gnant</w>": 5456,
      "oak</w>": 5457,
      "escalator</w>": 5458,
      "italian</w>": 5459,
      "security</w>": 5460,
      "livestock</w>": 5461,
      "cline</w>": 5462,
      "gan": 5463,
      "gun": 5464,
      "gone</w>": 5465,
      "octo": 5466,
      "tel": 5467,
      "ridden</w>": 5468,
      "enth": 5469,
      "trailing</w>": 5470,
      "dex</w>": 5471,
      "pilot</w>": 5472,
      "noses</w>": 5473,
      "wines</w>": 5474,
      "comb</w>": 5475,
      "sually</w>": 5476,
      "descen": 5477,
      "dreds</w>": 5478,
      "backhand</w>": 5479,
      "linens</w>": 5480,
      "pregnant</w>": 5481,
      "sandals</w>": 5482,
      "cook": 5483,
      "apping</w>": 5484,
      "sunflowers</w>": 5485,
      "televisions</w>": 5486,
      "stered</w>": 5487,
      "cane</w>": 5488,
      "eyed</w>": 5489,
      "burrit": 5490,
      "hundreds</w>": 5491,
      "protest</w>": 5492,
      "gentlemen</w>": 5493,
      "attention</w>": 5494,
      "knocked</w>": 5495,
      "medicine</w>": 5496,
      "waffle</w>": 5497,
      "paperwork</w>": 5498,
      "frizbee</w>": 5499,
      "metropolitan</w>": 5500,
      "amidst</w>": 5501,
      "kri": 5502,
      "mal": 5503,
      "rofoam</w>": 5504,
      "reci": 5505,
      "retail</w>": 5506,
      "lovely</w>": 5507,
      "river": 5508,
      "docks</w>": 5509,
      "entry</w>": 5510,
      "cherries</w>": 5511,
      "bug</w>": 5512,
      "shment</w>": 5513,
      "washed</w>": 5514,
      "rugs</w>": 5515,
      "kittens</w>": 5516,
      "pushes</w>": 5517,
      "mechan": 5518,
      "formally</w>": 5519,
      "ffel</w>": 5520,
      "littered</w>": 5521,
      "lings</w>": 5522,
      "got</w>": 5523,
      "spil": 5524,
      "patri": 5525,
      "chop</w>": 5526,
      "tilted</w>": 5527,
      "styrofoam</w>": 5528,
      "ambu": 5529,
      "blocked</w>": 5530,
      "calcu": 5531,
      "vending</w>": 5532,
      "autum": 5533,
      "native</w>": 5534,
      "ssel</w>": 5535,
      "citrus</w>": 5536,
      "tabletop</w>": 5537,
      "vendors</w>": 5538,
      "guiding</w>": 5539,
      "skyscrapers</w>": 5540,
      "intricat": 5541,
      "bronze</w>": 5542,
      "fu</w>": 5543,
      "napping</w>": 5544,
      "rel</w>": 5545,
      "las</w>": 5546,
      "hovering</w>": 5547,
      "sies</w>": 5548,
      "buying</w>": 5549,
      "sections</w>": 5550,
      "grain</w>": 5551,
      "pale</w>": 5552,
      "meet</w>": 5553,
      "western</w>": 5554,
      "broad": 5555,
      "cuddling</w>": 5556,
      "flore": 5557,
      "spon": 5558,
      "exotic</w>": 5559,
      "vane</w>": 5560,
      "crui": 5561,
      "washroom</w>": 5562,
      "raises</w>": 5563,
      "stoplights</w>": 5564,
      "daylight</w>": 5565,
      "lifted</w>": 5566,
      "stairway</w>": 5567,
      "hairy</w>": 5568,
      "athletic</w>": 5569,
      "bundled</w>": 5570,
      "handicap</w>": 5571,
      "symbol</w>": 5572,
      "bagels</w>": 5573,
      "skull</w>": 5574,
      "camouflage</w>": 5575,
      "eglasses</w>": 5576,
      "own": 5577,
      "ude</w>": 5578,
      "ther": 5579,
      "anci": 5580,
      "ara": 5581,
      "ropes</w>": 5582,
      "retro</w>": 5583,
      "already</w>": 5584,
      "tofu</w>": 5585,
      "dome</w>": 5586,
      "pel</w>": 5587,
      "seed</w>": 5588,
      "bean</w>": 5589,
      "lished</w>": 5590,
      "mock</w>": 5591,
      "lean</w>": 5592,
      "lapse</w>": 5593,
      "backed</w>": 5594,
      "pretending</w>": 5595,
      "miring</w>": 5596,
      "server</w>": 5597,
      "spire</w>": 5598,
      "other": 5599,
      "namon</w>": 5600,
      "except</w>": 5601,
      "ada</w>": 5602,
      "admiring</w>": 5603,
      "canada</w>": 5604,
      "tour": 5605,
      "shelter</w>": 5606,
      "lettering</w>": 5607,
      "flips</w>": 5608,
      "starbucks</w>": 5609,
      "capti": 5610,
      "stalk</w>": 5611,
      "custom</w>": 5612,
      "torn</w>": 5613,
      "seeds</w>": 5614,
      "savanna</w>": 5615,
      "splashing</w>": 5616,
      "mouths</w>": 5617,
      "describe</w>": 5618,
      "snuggling</w>": 5619,
      "cinnamon</w>": 5620,
      "visitors</w>": 5621,
      "autumn</w>": 5622,
      "amuse": 5623,
      "dvd</w>": 5624,
      "fel": 5625,
      "fit</w>": 5626,
      "kra": 5627,
      "swit": 5628,
      "tch</w>": 5629,
      "wth</w>": 5630,
      "yi": 5631,
      "ares</w>": 5632,
      "robot</w>": 5633,
      "ilight</w>": 5634,
      "chun": 5635,
      "twilight</w>": 5636,
      "sor</w>": 5637,
      "sectional</w>": 5638,
      "beers</w>": 5639,
      "caboo": 5640,
      "deckered</w>": 5641,
      "pop</w>": 5642,
      "may": 5643,
      "forming</w>": 5644,
      "tained</w>": 5645,
      "platters</w>": 5646,
      "ssor</w>": 5647,
      "monster</w>": 5648,
      "markers</w>": 5649,
      "milling</w>": 5650,
      "job</w>": 5651,
      "bottled</w>": 5652,
      "south": 5653,
      "seafood</w>": 5654,
      "evergreen</w>": 5655,
      "ctors</w>": 5656,
      "record</w>": 5657,
      "pencils</w>": 5658,
      "ceremony</w>": 5659,
      "ancient</w>": 5660,
      "otherwise</w>": 5661,
      "amusement</w>": 5662,
      "dles</w>": 5663,
      "found</w>": 5664,
      "fine</w>": 5665,
      "mc": 5666,
      "incline</w>": 5667,
      "reo</w>": 5668,
      "alert</w>": 5669,
      "ath</w>": 5670,
      "busted</w>": 5671,
      "capit": 5672,
      "frog</w>": 5673,
      "defen": 5674,
      "walked</w>": 5675,
      "tip</w>": 5676,
      "dible</w>": 5677,
      "mac": 5678,
      "commun": 5679,
      "congre": 5680,
      "tem": 5681,
      "goers</w>": 5682,
      "vels</w>": 5683,
      "decorate</w>": 5684,
      "typical</w>": 5685,
      "scenery</w>": 5686,
      "barely</w>": 5687,
      "cramped</w>": 5688,
      "spective</w>": 5689,
      "teal</w>": 5690,
      "wrapping</w>": 5691,
      "climb</w>": 5692,
      "fighters</w>": 5693,
      "titude</w>": 5694,
      "peacock</w>": 5695,
      "hooded</w>": 5696,
      "alie</w>": 5697,
      "goose</w>": 5698,
      "advertisements</w>": 5699,
      "reclining</w>": 5700,
      "transporting</w>": 5701,
      "seem</w>": 5702,
      "scot</w>": 5703,
      "inspecting</w>": 5704,
      "patrons</w>": 5705,
      "alog</w>": 5706,
      "horizon</w>": 5707,
      "trashcan</w>": 5708,
      "shepherd</w>": 5709,
      "owners</w>": 5710,
      "awning</w>": 5711,
      "ki</w>": 5712,
      "wns</w>": 5713,
      "woul": 5714,
      "year</w>": 5715,
      "any": 5716,
      "returns</w>": 5717,
      "dor</w>": 5718,
      "dots</w>": 5719,
      "cole</w>": 5720,
      "whit</w>": 5721,
      "soci": 5722,
      "sesame</w>": 5723,
      "beani": 5724,
      "stream": 5725,
      "fight</w>": 5726,
      "packing</w>": 5727,
      "digging</w>": 5728,
      "mass</w>": 5729,
      "mascot</w>": 5730,
      "trey</w>": 5731,
      "stab": 5732,
      "hazy</w>": 5733,
      "goalie</w>": 5734,
      "triple</w>": 5735,
      "removing</w>": 5736,
      "nament</w>": 5737,
      "exer": 5738,
      "pillars</w>": 5739,
      "tattoo</w>": 5740,
      "chase</w>": 5741,
      "cloths</w>": 5742,
      "business": 5743,
      "burner</w>": 5744,
      "tanker</w>": 5745,
      "accompani": 5746,
      "waterfront</w>": 5747,
      "hooks</w>": 5748,
      "captured</w>": 5749,
      "extending</w>": 5750,
      "attending</w>": 5751,
      "stormy</w>": 5752,
      "city": 5753,
      "adjusts</w>": 5754,
      "archway</w>": 5755,
      "licks</w>": 5756,
      "creepy</w>": 5757,
      "destination</w>": 5758,
      "divided</w>": 5759,
      "handicapped</w>": 5760,
      "embracing</w>": 5761,
      "squirrel</w>": 5762,
      "olympic</w>": 5763,
      "taxiing</w>": 5764,
      "ofa</w>": 5765,
      "tangerines</w>": 5766,
      "personnel</w>": 5767,
      "equestrian</w>": 5768,
      "radiator</w>": 5769,
      "tournament</w>": 5770,
      "caboose</w>": 5771,
      "ava": 5772,
      "fou": 5773,
      "ident</w>": 5774,
      "oo</w>": 5775,
      "pc</w>": 5776,
      "peach</w>": 5777,
      "pump</w>": 5778,
      "var": 5779,
      "rally</w>": 5780,
      "alpine</w>": 5781,
      "hovers</w>": 5782,
      "dos</w>": 5783,
      "chin</w>": 5784,
      "bably</w>": 5785,
      "live</w>": 5786,
      "kits</w>": 5787,
      "surfboarding</w>": 5788,
      "shopped</w>": 5789,
      "wiping</w>": 5790,
      "samp": 5791,
      "scent</w>": 5792,
      "hidden</w>": 5793,
      "terri": 5794,
      "animat": 5795,
      "sunshine</w>": 5796,
      "foot": 5797,
      "drain</w>": 5798,
      "squares</w>": 5799,
      "reflects</w>": 5800,
      "reflective</w>": 5801,
      "roasted</w>": 5802,
      "swims</w>": 5803,
      "dence</w>": 5804,
      "appearing</w>": 5805,
      "born</w>": 5806,
      "conversing</w>": 5807,
      "processor</w>": 5808,
      "packages</w>": 5809,
      "accident</w>": 5810,
      "presented</w>": 5811,
      "hammer</w>": 5812,
      "examining</w>": 5813,
      "contemporary</w>": 5814,
      "ascending</w>": 5815,
      "puppies</w>": 5816,
      "grapefruit</w>": 5817,
      "octopus</w>": 5818,
      "ambulance</w>": 5819,
      "would</w>": 5820,
      "exerci": 5821,
      "accompanied</w>": 5822,
      "aging</w>": 5823,
      "fair": 5824,
      "rv</w>": 5825,
      "slan": 5826,
      "val": 5827,
      "vine</w>": 5828,
      "your</w>": 5829,
      "reli": 5830,
      "ston</w>": 5831,
      "laugh</w>": 5832,
      "boxing</w>": 5833,
      "ripen": 5834,
      "skin</w>": 5835,
      "buy</w>": 5836,
      "bunt</w>": 5837,
      "neu": 5838,
      "fist</w>": 5839,
      "waling</w>": 5840,
      "wait": 5841,
      "moti": 5842,
      "cara": 5843,
      "airstrip</w>": 5844,
      "bie</w>": 5845,
      "wig</w>": 5846,
      "nuzz": 5847,
      "trolly</w>": 5848,
      "arian</w>": 5849,
      "probably</w>": 5850,
      "anish</w>": 5851,
      "shaved</w>": 5852,
      "beached</w>": 5853,
      "cracked</w>": 5854,
      "handle": 5855,
      "partial</w>": 5856,
      "bells</w>": 5857,
      "patiently</w>": 5858,
      "should</w>": 5859,
      "focused</w>": 5860,
      "fixture</w>": 5861,
      "instrument</w>": 5862,
      "packaged</w>": 5863,
      "grinds</w>": 5864,
      "barriers</w>": 5865,
      "recording</w>": 5866,
      "laundry</w>": 5867,
      "destro": 5868,
      "bouncing</w>": 5869,
      "renovated</w>": 5870,
      "remains</w>": 5871,
      "official</w>": 5872,
      "heater</w>": 5873,
      "calculator</w>": 5874,
      "kraut</w>": 5875,
      "beanie</w>": 5876,
      "businessman</w>": 5877,
      "ama": 5878,
      "aisle</w>": 5879,
      "bin": 5880,
      "dgerator</w>": 5881,
      "ee</w>": 5882,
      "mur": 5883,
      "ner": 5884,
      "si</w>": 5885,
      "vet</w>": 5886,
      "vation</w>": 5887,
      "inery</w>": 5888,
      "rod</w>": 5889,
      "red": 5890,
      "lable</w>": 5891,
      "rat": 5892,
      "raging</w>": 5893,
      "raining</w>": 5894,
      "rist</w>": 5895,
      "enor": 5896,
      "sity</w>": 5897,
      "bel</w>": 5898,
      "beat</w>": 5899,
      "because</w>": 5900,
      "casual</w>": 5901,
      "life": 5902,
      "fif": 5903,
      "push</w>": 5904,
      "vil</w>": 5905,
      "biking</w>": 5906,
      "bird": 5907,
      "snowsuit</w>": 5908,
      "strips</w>": 5909,
      "pita</w>": 5910,
      "named</w>": 5911,
      "chews</w>": 5912,
      "zoo": 5913,
      "positions</w>": 5914,
      "machinery</w>": 5915,
      "courts</w>": 5916,
      "peeks</w>": 5917,
      "practices</w>": 5918,
      "views</w>": 5919,
      "dropping</w>": 5920,
      "climbs</w>": 5921,
      "spinning</w>": 5922,
      "salon</w>": 5923,
      "salmon</w>": 5924,
      "guide</w>": 5925,
      "athletes</w>": 5926,
      "settings</w>": 5927,
      "silhouet": 5928,
      "ornaments</w>": 5929,
      "basic</w>": 5930,
      "examines</w>": 5931,
      "pumpkins</w>": 5932,
      "employees</w>": 5933,
      "galloping</w>": 5934,
      "theater</w>": 5935,
      "daisies</w>": 5936,
      "expanse</w>": 5937,
      "stockings</w>": 5938,
      "enthu": 5939,
      "cityscape</w>": 5940,
      "enormous</w>": 5941,
      "cer": 5942,
      "dum": 5943,
      "ok</w>": 5944,
      "phi": 5945,
      "roy": 5946,
      "radishes</w>": 5947,
      "almon": 5948,
      "dora</w>": 5949,
      "coal</w>": 5950,
      "solar</w>": 5951,
      "foal</w>": 5952,
      "cave</w>": 5953,
      "camp</w>": 5954,
      "participat": 5955,
      "moment</w>": 5956,
      "baseman</w>": 5957,
      "gift</w>": 5958,
      "wedge</w>": 5959,
      "wired</w>": 5960,
      "motorcy": 5961,
      "forms</w>": 5962,
      "famous</w>": 5963,
      "fences</w>": 5964,
      "sandwhich</w>": 5965,
      "gown</w>": 5966,
      "sidecar</w>": 5967,
      "mono": 5968,
      "mark</w>": 5969,
      "knick</w>": 5970,
      "cifi": 5971,
      "drapes</w>": 5972,
      "wilde": 5973,
      "candies</w>": 5974,
      "calves</w>": 5975,
      "dense</w>": 5976,
      "vanilla</w>": 5977,
      "burners</w>": 5978,
      "attempt</w>": 5979,
      "nature</w>": 5980,
      "glider</w>": 5981,
      "speech</w>": 5982,
      "donal": 5983,
      "browns</w>": 5984,
      "thumb</w>": 5985,
      "languages</w>": 5986,
      "engaging</w>": 5987,
      "bulldog</w>": 5988,
      "workstation</w>": 5989,
      "political</w>": 5990,
      "pumpkin</w>": 5991,
      "biscuits</w>": 5992,
      "length</w>": 5993,
      "sociali": 5994,
      "gn</w>": 5995,
      "ilable</w>": 5996,
      "ory</w>": 5997,
      "ris</w>": 5998,
      "yummy</w>": 5999,
      "zuc": 6000,
      "thread</w>": 6001,
      "analog</w>": 6002,
      "reins</w>": 6003,
      "lab": 6004,
      "raquet</w>": 6005,
      "loft</w>": 6006,
      "rial</w>": 6007,
      "chment</w>": 6008,
      "buds</w>": 6009,
      "ffs</w>": 6010,
      "cactu": 6011,
      "sma": 6012,
      "rust</w>": 6013,
      "plantains</w>": 6014,
      "cut": 6015,
      "readies</w>": 6016,
      "fedora</w>": 6017,
      "marching</w>": 6018,
      "markings</w>": 6019,
      "sley</w>": 6020,
      "interstate</w>": 6021,
      "hallo": 6022,
      "jug</w>": 6023,
      "scissor</w>": 6024,
      "hug</w>": 6025,
      "dragging</w>": 6026,
      "crab</w>": 6027,
      "carried</w>": 6028,
      "fleet</w>": 6029,
      "mbled</w>": 6030,
      "bbling</w>": 6031,
      "ticket</w>": 6032,
      "ponies</w>": 6033,
      "peak</w>": 6034,
      "noodle</w>": 6035,
      "warns</w>": 6036,
      "charging</w>": 6037,
      "recliner</w>": 6038,
      "salt</w>": 6039,
      "ingly</w>": 6040,
      "showroom</w>": 6041,
      "grooming</w>": 6042,
      "mannequin</w>": 6043,
      "gadgets</w>": 6044,
      "gang</w>": 6045,
      "available</w>": 6046,
      "zucch": 6047,
      "cactus</w>": 6048,
      "dang": 6049,
      "eing</w>": 6050,
      "fr": 6051,
      "fic": 6052,
      "hat": 6053,
      "iro": 6054,
      "ixed</w>": 6055,
      "mice</w>": 6056,
      "pro</w>": 6057,
      "sump": 6058,
      "warm": 6059,
      "repl": 6060,
      "lors</w>": 6061,
      "sight</w>": 6062,
      "rig</w>": 6063,
      "trak</w>": 6064,
      "roof": 6065,
      "came</w>": 6066,
      "grove</w>": 6067,
      "deta": 6068,
      "pokes</w>": 6069,
      "clock": 6070,
      "mosa": 6071,
      "median</w>": 6072,
      "stoves</w>": 6073,
      "pples</w>": 6074,
      "ween</w>": 6075,
      "viol": 6076,
      "qua": 6077,
      "sidewalks</w>": 6078,
      "market": 6079,
      "currently</w>": 6080,
      "garb</w>": 6081,
      "husky</w>": 6082,
      "crawling</w>": 6083,
      "team": 6084,
      "styli": 6085,
      "amtrak</w>": 6086,
      "blosso": 6087,
      "handled</w>": 6088,
      "downward</w>": 6089,
      "peaches</w>": 6090,
      "finishing</w>": 6091,
      "delivering</w>": 6092,
      "instructions</w>": 6093,
      "attended</w>": 6094,
      "sparsely</w>": 6095,
      "begin</w>": 6096,
      "presenting</w>": 6097,
      "camel</w>": 6098,
      "ornament</w>": 6099,
      "architectu": 6100,
      "biscuit</w>": 6101,
      "populated</w>": 6102,
      "waist</w>": 6103,
      "carefully</w>": 6104,
      "affixed</w>": 6105,
      "dalmat": 6106,
      "krispy</w>": 6107,
      "slanted</w>": 6108,
      "neutral</w>": 6109,
      "halloween</w>": 6110,
      "marketplace</w>": 6111,
      "added</w>": 6112,
      "bill</w>": 6113,
      "dged</w>": 6114,
      "igh</w>": 6115,
      "idle</w>": 6116,
      "ko": 6117,
      "omel": 6118,
      "rrb</w>": 6119,
      "tant</w>": 6120,
      "ugly</w>": 6121,
      "armo": 6122,
      "eries</w>": 6123,
      "ella</w>": 6124,
      "rib": 6125,
      "enti": 6126,
      "tar</w>": 6127,
      "tact</w>": 6128,
      "ske": 6129,
      "sked</w>": 6130,
      "caps</w>": 6131,
      "ckled</w>": 6132,
      "motes</w>": 6133,
      "blades</w>": 6134,
      "levels</w>": 6135,
      "ranch</w>": 6136,
      "weight</w>": 6137,
      "bib</w>": 6138,
      "croche": 6139,
      "vertical</w>": 6140,
      "wooly</w>": 6141,
      "ford</w>": 6142,
      "snowing</w>": 6143,
      "ques</w>": 6144,
      "banquet</w>": 6145,
      "linen</w>": 6146,
      "fencing</w>": 6147,
      "boot</w>": 6148,
      "fedex</w>": 6149,
      "aper</w>": 6150,
      "refridgerator</w>": 6151,
      "marks</w>": 6152,
      "barber</w>": 6153,
      "pane</w>": 6154,
      "breads</w>": 6155,
      "roam</w>": 6156,
      "stead</w>": 6157,
      "letter</w>": 6158,
      "residence</w>": 6159,
      "numeral</w>": 6160,
      "weathered</w>": 6161,
      "parrots</w>": 6162,
      "contest</w>": 6163,
      "extreme</w>": 6164,
      "makeshift</w>": 6165,
      "bandana</w>": 6166,
      "ginger</w>": 6167,
      "wonder": 6168,
      "household</w>": 6169,
      "knit</w>": 6170,
      "conductor</w>": 6171,
      "oxen</w>": 6172,
      "burrito</w>": 6173,
      "captivity</w>": 6174,
      "enthusia": 6175,
      "zucchini</w>": 6176,
      "mosaic</w>": 6177,
      "omelet</w>": 6178,
      "ae": 6179,
      "das</w>": 6180,
      "fell</w>": 6181,
      "kre": 6182,
      "sour</w>": 6183,
      "vans</w>": 6184,
      "vities</w>": 6185,
      "thic</w>": 6186,
      "enough</w>": 6187,
      "root</w>": 6188,
      "ffle</w>": 6189,
      "gram</w>": 6190,
      "pad": 6191,
      "looked</w>": 6192,
      "waste</w>": 6193,
      "diaper</w>": 6194,
      "zzar": 6195,
      "super</w>": 6196,
      "consump": 6197,
      "wood": 6198,
      "laps</w>": 6199,
      "futon</w>": 6200,
      "filthy</w>": 6201,
      "might</w>": 6202,
      "litter</w>": 6203,
      "pressing</w>": 6204,
      "nia</w>": 6205,
      "gothic</w>": 6206,
      "trimmed</w>": 6207,
      "stures</w>": 6208,
      "leap</w>": 6209,
      "stuffing</w>": 6210,
      "sleigh</w>": 6211,
      "check": 6212,
      "overgrown</w>": 6213,
      "stically</w>": 6214,
      "stereo</w>": 6215,
      "upwards</w>": 6216,
      "styles</w>": 6217,
      "stylish</w>": 6218,
      "claw</w>": 6219,
      "mpled</w>": 6220,
      "cali": 6221,
      "tically</w>": 6222,
      "approach</w>": 6223,
      "peaking</w>": 6224,
      "charger</w>": 6225,
      "complex</w>": 6226,
      "known</w>": 6227,
      "needle</w>": 6228,
      "haircut</w>": 6229,
      "reception</w>": 6230,
      "hammock</w>": 6231,
      "standard</w>": 6232,
      "flowery</w>": 6233,
      "snuggled</w>": 6234,
      "concert</w>": 6235,
      "peacefully</w>": 6236,
      "victori": 6237,
      "mcdonal": 6238,
      "crocheted</w>": 6239,
      "consumption</w>": 6240,
      "aw": 6241,
      "awaits</w>": 6242,
      "agie</w>": 6243,
      "croo": 6244,
      "cers</w>": 6245,
      "fting</w>": 6246,
      "glow</w>": 6247,
      "lrb</w>": 6248,
      "mming</w>": 6249,
      "ove": 6250,
      "ple": 6251,
      "rink</w>": 6252,
      "sound</w>": 6253,
      "ith</w>": 6254,
      "ank": 6255,
      "strac": 6256,
      "laden</w>": 6257,
      "era</w>": 6258,
      "lons</w>": 6259,
      "hoop</w>": 6260,
      "hoagie</w>": 6261,
      "box": 6262,
      "bone</w>": 6263,
      "cocon": 6264,
      "foraging</w>": 6265,
      "casting</w>": 6266,
      "mozzar": 6267,
      "disc": 6268,
      "compartments</w>": 6269,
      "carving</w>": 6270,
      "vide": 6271,
      "congra": 6272,
      "film</w>": 6273,
      "rundown</w>": 6274,
      "leashes</w>": 6275,
      "prou": 6276,
      "herded</w>": 6277,
      "cheeses</w>": 6278,
      "sleepy</w>": 6279,
      "nasty</w>": 6280,
      "huddle</w>": 6281,
      "teapot</w>": 6282,
      "substance</w>": 6283,
      "pepsi</w>": 6284,
      "clothed</w>": 6285,
      "product</w>": 6286,
      "headlights</w>": 6287,
      "diced</w>": 6288,
      "hunched</w>": 6289,
      "landsca": 6290,
      "grilling</w>": 6291,
      "hamburgers</w>": 6292,
      "mental</w>": 6293,
      "impor": 6294,
      "necklace</w>": 6295,
      "flowering</w>": 6296,
      "shooting</w>": 6297,
      "ferris</w>": 6298,
      "assembly</w>": 6299,
      "quarters</w>": 6300,
      "supermarket</w>": 6301,
      "flamingos</w>": 6302,
      "patriotic</w>": 6303,
      "intricate</w>": 6304,
      "destroyed</w>": 6305,
      "clocktower</w>": 6306,
      "kreme</w>": 6307,
      "mozzarella</w>": 6308,
      "hedge</w>": 6309,
      "ox</w>": 6310,
      "ular</w>": 6311,
      "vs</w>": 6312,
      "wrong</w>": 6313,
      "instead</w>": 6314,
      "tha": 6315,
      "lav": 6316,
      "label</w>": 6317,
      "tossed</w>": 6318,
      "chet</w>": 6319,
      "ury</w>": 6320,
      "bubble</w>": 6321,
      "boarded</w>": 6322,
      "icans</w>": 6323,
      "unused</w>": 6324,
      "groun": 6325,
      "lip</w>": 6326,
      "pood": 6327,
      "diag": 6328,
      "blazer</w>": 6329,
      "signing</w>": 6330,
      "lev": 6331,
      "mel</w>": 6332,
      "weed</w>": 6333,
      "concen": 6334,
      "cul": 6335,
      "toilette</w>": 6336,
      "motorboat</w>": 6337,
      "cess": 6338,
      "sam": 6339,
      "days</w>": 6340,
      "veget": 6341,
      "protru": 6342,
      "herds</w>": 6343,
      "spreads</w>": 6344,
      "turtle</w>": 6345,
      "shack</w>": 6346,
      "beau": 6347,
      "drail</w>": 6348,
      "barge</w>": 6349,
      "underground</w>": 6350,
      "spewing</w>": 6351,
      "beautifully</w>": 6352,
      "squats</w>": 6353,
      "central</w>": 6354,
      "speaks</w>": 6355,
      "utensil</w>": 6356,
      "tongs</w>": 6357,
      "viewer</w>": 6358,
      "laughs</w>": 6359,
      "channel</w>": 6360,
      "wheelie</w>": 6361,
      "layed</w>": 6362,
      "blueberry</w>": 6363,
      "meatballs</w>": 6364,
      "groomed</w>": 6365,
      "support</w>": 6366,
      "croissant</w>": 6367,
      "halfway</w>": 6368,
      "lamppost</w>": 6369,
      "cushions</w>": 6370,
      "descending</w>": 6371,
      "florets</w>": 6372,
      "macbook</w>": 6373,
      "royal</w>": 6374,
      "wildebe": 6375,
      "fryer</w>": 6376,
      "congratu": 6377,
      "aboard</w>": 6378,
      "dying</w>": 6379,
      "gloo": 6380,
      "kking</w>": 6381,
      "mit</w>": 6382,
      "sell</w>": 6383,
      "tz": 6384,
      "wrou": 6385,
      "inner</w>": 6386,
      "rese": 6387,
      "rely</w>": 6388,
      "tosses</w>": 6389,
      "tory</w>": 6390,
      "sidel": 6391,
      "woven</w>": 6392,
      "depict": 6393,
      "tips</w>": 6394,
      "mobil": 6395,
      "mainten": 6396,
      "master</w>": 6397,
      "crow</w>": 6398,
      "confu": 6399,
      "trekking</w>": 6400,
      "bridle</w>": 6401,
      "dale</w>": 6402,
      "stages</w>": 6403,
      "dude</w>": 6404,
      "england</w>": 6405,
      "worked</w>": 6406,
      "span": 6407,
      "marsh": 6408,
      "sunlit</w>": 6409,
      "controlled</w>": 6410,
      "beam</w>": 6411,
      "cently</w>": 6412,
      "vender</w>": 6413,
      "housing</w>": 6414,
      "pelican</w>": 6415,
      "brass</w>": 6416,
      "mitts</w>": 6417,
      "poured</w>": 6418,
      "customer</w>": 6419,
      "spark": 6420,
      "blooming</w>": 6421,
      "combing</w>": 6422,
      "pineapples</w>": 6423,
      "activities</w>": 6424,
      "sorts</w>": 6425,
      "pencil</w>": 6426,
      "memorial</w>": 6427,
      "columns</w>": 6428,
      "fronts</w>": 6429,
      "contraption</w>": 6430,
      "perfect</w>": 6431,
      "broadway</w>": 6432,
      "animated</w>": 6433,
      "replica</w>": 6434,
      "important</w>": 6435,
      "concentra": 6436,
      "vegetarian</w>": 6437,
      "wrought</w>": 6438,
      "depicted</w>": 6439,
      "maintenance</w>": 6440,
      "affe": 6441,
      "ctures</w>": 6442,
      "estab": 6443,
      "opard</w>": 6444,
      "sat</w>": 6445,
      "scou": 6446,
      "scor": 6447,
      "think</w>": 6448,
      "rescu": 6449,
      "ralls</w>": 6450,
      "tone</w>": 6451,
      "boston</w>": 6452,
      "docking</w>": 6453,
      "coated</w>": 6454,
      "twel": 6455,
      "parks</w>": 6456,
      "depar": 6457,
      "pauses</w>": 6458,
      "pacifi": 6459,
      "tening</w>": 6460,
      "gau": 6461,
      "blade</w>": 6462,
      "leopard</w>": 6463,
      "plank</w>": 6464,
      "pics</w>": 6465,
      "through": 6466,
      "contact</w>": 6467,
      "teens</w>": 6468,
      "brief</w>": 6469,
      "pretz": 6470,
      "stay</w>": 6471,
      "taller</w>": 6472,
      "jack</w>": 6473,
      "surroundings</w>": 6474,
      "ball": 6475,
      "bark</w>": 6476,
      "center": 6477,
      "spapers</w>": 6478,
      "asia</w>": 6479,
      "burgers</w>": 6480,
      "shel</w>": 6481,
      "automat": 6482,
      "gentle</w>": 6483,
      "newspapers</w>": 6484,
      "studying</w>": 6485,
      "helmeted</w>": 6486,
      "curiously</w>": 6487,
      "meatball</w>": 6488,
      "hearts</w>": 6489,
      "virgin</w>": 6490,
      "exterior</w>": 6491,
      "wander</w>": 6492,
      "murky</w>": 6493,
      "architectural</w>": 6494,
      "beauty</w>": 6495,
      "mobiles</w>": 6496,
      "ahu": 6497,
      "by": 6498,
      "dels</w>": 6499,
      "find</w>": 6500,
      "gal": 6501,
      "gen</w>": 6502,
      "gby</w>": 6503,
      "mens</w>": 6504,
      "om": 6505,
      "pum": 6506,
      "sers</w>": 6507,
      "vas</w>": 6508,
      "who": 6509,
      "wrist</w>": 6510,
      "recreat": 6511,
      "stran": 6512,
      "lob": 6513,
      "lowing</w>": 6514,
      "bows</w>": 6515,
      "boating</w>": 6516,
      "boiled</w>": 6517,
      "pet": 6518,
      "bushel</w>": 6519,
      "nook</w>": 6520,
      "modi": 6521,
      "models</w>": 6522,
      "rugby</w>": 6523,
      "lanter": 6524,
      "suc": 6525,
      "contin": 6526,
      "test</w>": 6527,
      "fornia</w>": 6528,
      "guar": 6529,
      "diners</w>": 6530,
      "mates</w>": 6531,
      "brushed</w>": 6532,
      "sung</w>": 6533,
      "choo": 6534,
      "checked</w>": 6535,
      "huahu": 6536,
      "underside</w>": 6537,
      "canvas</w>": 6538,
      "mbling</w>": 6539,
      "spaces</w>": 6540,
      "chicago</w>": 6541,
      "ggling</w>": 6542,
      "chihuahu": 6543,
      "slippers</w>": 6544,
      "lunging</w>": 6545,
      "constructed</w>": 6546,
      "semble</w>": 6547,
      "groceries</w>": 6548,
      "receive</w>": 6549,
      "ult</w>": 6550,
      "bundt</w>": 6551,
      "streetlights</w>": 6552,
      "twig</w>": 6553,
      "dunkin</w>": 6554,
      "horizon": 6555,
      "france</w>": 6556,
      "appetizers</w>": 6557,
      "rhino</w>": 6558,
      "wrestling</w>": 6559,
      "luxury</w>": 6560,
      "flavors</w>": 6561,
      "mechanical</w>": 6562,
      "fairly</w>": 6563,
      "stylized</w>": 6564,
      "ribbo": 6565,
      "paddock</w>": 6566,
      "california</w>": 6567,
      "poodle</w>": 6568,
      "samsung</w>": 6569,
      "gloomy</w>": 6570,
      "rescue</w>": 6571,
      "twelve</w>": 6572,
      "recreational</w>": 6573,
      "chihuahua</w>": 6574,
      "clean": 6575,
      "every</w>": 6576,
      "mats</w>": 6577,
      "oat": 6578,
      "pong</w>": 6579,
      "plun": 6580,
      "vent</w>": 6581,
      "robes</w>": 6582,
      "perspective</w>": 6583,
      "paying</w>": 6584,
      "wavy</w>": 6585,
      "playfully</w>": 6586,
      "via</w>": 6587,
      "outdated</w>": 6588,
      "broth</w>": 6589,
      "cel</w>": 6590,
      "backseat</w>": 6591,
      "misses</w>": 6592,
      "hides</w>": 6593,
      "gues</w>": 6594,
      "ction": 6595,
      "pressed</w>": 6596,
      "cly": 6597,
      "cables</w>": 6598,
      "orch": 6599,
      "jewel": 6600,
      "sauer": 6601,
      "minu": 6602,
      "pantry</w>": 6603,
      "paneling</w>": 6604,
      "structures</w>": 6605,
      "observe</w>": 6606,
      "fireman</w>": 6607,
      "highchair</w>": 6608,
      "trailers</w>": 6609,
      "bordered</w>": 6610,
      "took</w>": 6611,
      "coaster</w>": 6612,
      "swir": 6613,
      "captive</w>": 6614,
      "drops</w>": 6615,
      "gathers</w>": 6616,
      "instructor</w>": 6617,
      "salsa</w>": 6618,
      "cranes</w>": 6619,
      "operated</w>": 6620,
      "thomas</w>": 6621,
      "learn</w>": 6622,
      "spiral</w>": 6623,
      "welcome</w>": 6624,
      "employee</w>": 6625,
      "mannequins</w>": 6626,
      "retriever</w>": 6627,
      "brownies</w>": 6628,
      "graphic</w>": 6629,
      "graduation</w>": 6630,
      "gesture</w>": 6631,
      "panoramic</w>": 6632,
      "yacht</w>": 6633,
      "recipe</w>": 6634,
      "thermo": 6635,
      "yield</w>": 6636,
      "terrier</w>": 6637,
      "quaint</w>": 6638,
      "establi": 6639,
      "throughout</w>": 6640,
      "ribbons</w>": 6641,
      "oatmeal</w>": 6642,
      "bled</w>": 6643,
      "eous</w>": 6644,
      "fying</w>": 6645,
      "hear</w>": 6646,
      "imp": 6647,
      "ot</w>": 6648,
      "angel</w>": 6649,
      "recently</w>": 6650,
      "stit": 6651,
      "aled</w>": 6652,
      "atv</w>": 6653,
      "hocke": 6654,
      "top": 6655,
      "ense</w>": 6656,
      "east</w>": 6657,
      "bad": 6658,
      "twenty</w>": 6659,
      "peels</w>": 6660,
      "buried</w>": 6661,
      "ically</w>": 6662,
      "unoccupied</w>": 6663,
      "camp": 6664,
      "demo": 6665,
      "grate</w>": 6666,
      "palace</w>": 6667,
      "noki": 6668,
      "gifts</w>": 6669,
      "zzled</w>": 6670,
      "wedges</w>": 6671,
      "kitchen": 6672,
      "crop</w>": 6673,
      "oping</w>": 6674,
      "snowman</w>": 6675,
      "prey</w>": 6676,
      "tusk</w>": 6677,
      "trotting</w>": 6678,
      "promin": 6679,
      "spanish</w>": 6680,
      "pitches</w>": 6681,
      "forehead</w>": 6682,
      "abstrac": 6683,
      "exam": 6684,
      "univer": 6685,
      "families</w>": 6686,
      "claus</w>": 6687,
      "roasting</w>": 6688,
      "swiss</w>": 6689,
      "parasail</w>": 6690,
      "vines</w>": 6691,
      "shears</w>": 6692,
      "genera": 6693,
      "coaches</w>": 6694,
      "patterns</w>": 6695,
      "deliver</w>": 6696,
      "converted</w>": 6697,
      "angles</w>": 6698,
      "arrive</w>": 6699,
      "launch</w>": 6700,
      "ornamental</w>": 6701,
      "column</w>": 6702,
      "demonstration</w>": 6703,
      "suppor": 6704,
      "croissants</w>": 6705,
      "maneuver</w>": 6706,
      "diffic": 6707,
      "streamers</w>": 6708,
      "handlebars</w>": 6709,
      "dangling</w>": 6710,
      "modified</w>": 6711,
      "hockey</w>": 6712,
      "nokia</w>": 6713,
      "abund": 6714,
      "bing</w>": 6715,
      "bside</w>": 6716,
      "cs</w>": 6717,
      "fto": 6718,
      "gna</w>": 6719,
      "hound</w>": 6720,
      "my": 6721,
      "py": 6722,
      "vings</w>": 6723,
      "you": 6724,
      "thin": 6725,
      "thou": 6726,
      "ara</w>": 6727,
      "arching</w>": 6728,
      "stil": 6729,
      "lation</w>": 6730,
      "toss</w>": 6731,
      "ellan": 6732,
      "coral</w>": 6733,
      "entire</w>": 6734,
      "plat</w>": 6735,
      "peer</w>": 6736,
      "pered</w>": 6737,
      "soars</w>": 6738,
      "social</w>": 6739,
      "foam": 6740,
      "liding</w>": 6741,
      "del</w>": 6742,
      "couples</w>": 6743,
      "pier": 6744,
      "combo</w>": 6745,
      "sugar": 6746,
      "glaze</w>": 6747,
      "ceil": 6748,
      "forrest</w>": 6749,
      "fau": 6750,
      "scellan": 6751,
      "miscellan": 6752,
      "triangle</w>": 6753,
      "tripod</w>": 6754,
      "least</w>": 6755,
      "lighter</w>": 6756,
      "spreading</w>": 6757,
      "juic": 6758,
      "hitched</w>": 6759,
      "pancake</w>": 6760,
      "strap</w>": 6761,
      "squat</w>": 6762,
      "squee": 6763,
      "mbles</w>": 6764,
      "eyeglasses</w>": 6765,
      "mpy</w>": 6766,
      "swimmers</w>": 6767,
      "propellor</w>": 6768,
      "newborn</w>": 6769,
      "stalks</w>": 6770,
      "function</w>": 6771,
      "pairing</w>": 6772,
      "nightstands</w>": 6773,
      "shark</w>": 6774,
      "layers</w>": 6775,
      "costumed</w>": 6776,
      "standup</w>": 6777,
      "sweets</w>": 6778,
      "sailor</w>": 6779,
      "rapids</w>": 6780,
      "boulders</w>": 6781,
      "revealing</w>": 6782,
      "tattoos</w>": 6783,
      "investigating</w>": 6784,
      "community</w>": 6785,
      "fours</w>": 6786,
      "varying</w>": 6787,
      "caramel</w>": 6788,
      "nuzzling</w>": 6789,
      "ironing</w>": 6790,
      "dalmatian</w>": 6791,
      "sauerkraut</w>": 6792,
      "difficult</w>": 6793,
      "foamy</w>": 6794,
      "bits</w>": 6795,
      "ish</w>": 6796,
      "wants</w>": 6797,
      "yway</w>": 6798,
      "ann": 6799,
      "ant": 6800,
      "anticipat": 6801,
      "stroll</w>": 6802,
      "outhouse</w>": 6803,
      "alli": 6804,
      "host</w>": 6805,
      "boxed</w>": 6806,
      "body": 6807,
      "bake</w>": 6808,
      "urn</w>": 6809,
      "bushy</w>": 6810,
      "ics</w>": 6811,
      "unknown</w>": 6812,
      "onally</w>": 6813,
      "frowning</w>": 6814,
      "deci": 6815,
      "loose</w>": 6816,
      "nolo": 6817,
      "moss</w>": 6818,
      "maje": 6819,
      "gestures</w>": 6820,
      "elev": 6821,
      "messing</w>": 6822,
      "visor</w>": 6823,
      "confin": 6824,
      "consum": 6825,
      "cycling</w>": 6826,
      "frisby</w>": 6827,
      "backside</w>": 6828,
      "davi": 6829,
      "staff</w>": 6830,
      "tusked</w>": 6831,
      "troph": 6832,
      "arium</w>": 6833,
      "batch</w>": 6834,
      "sunflower</w>": 6835,
      "curbside</w>": 6836,
      "freely</w>": 6837,
      "tury</w>": 6838,
      "nails</w>": 6839,
      "panting</w>": 6840,
      "crazy</w>": 6841,
      "strali": 6842,
      "sque</w>": 6843,
      "intense</w>": 6844,
      "century</w>": 6845,
      "uphill</w>": 6846,
      "direct</w>": 6847,
      "harne": 6848,
      "harley</w>": 6849,
      "height</w>": 6850,
      "follow</w>": 6851,
      "lunges</w>": 6852,
      "australi": 6853,
      "toddlers</w>": 6854,
      "bitten</w>": 6855,
      "prints</w>": 6856,
      "goofy</w>": 6857,
      "scrambled</w>": 6858,
      "fixed</w>": 6859,
      "packaging</w>": 6860,
      "grind</w>": 6861,
      "automobiles</w>": 6862,
      "japan</w>": 6863,
      "alleyway</w>": 6864,
      "cheeseburger</w>": 6865,
      "divider</w>": 6866,
      "renovation</w>": 6867,
      "patrol</w>": 6868,
      "seasoned</w>": 6869,
      "discussion</w>": 6870,
      "releasing</w>": 6871,
      "sailors</w>": 6872,
      "technolo": 6873,
      "region</w>": 6874,
      "flanked</w>": 6875,
      "rowboat</w>": 6876,
      "almonds</w>": 6877,
      "aero": 6878,
      "centerpiece</w>": 6879,
      "abstract</w>": 6880,
      "ceilings</w>": 6881,
      "apro": 6882,
      "date</w>": 6883,
      "effe": 6884,
      "fat": 6885,
      "hour</w>": 6886,
      "idly</w>": 6887,
      "kil": 6888,
      "pm</w>": 6889,
      "sp</w>": 6890,
      "ues</w>": 6891,
      "wled</w>": 6892,
      "whose</w>": 6893,
      "last</w>": 6894,
      "lavender</w>": 6895,
      "race": 6896,
      "low": 6897,
      "hom": 6898,
      "rie</w>": 6899,
      "chatting</w>": 6900,
      "place": 6901,
      "irts</w>": 6902,
      "taco</w>": 6903,
      "wheat</w>": 6904,
      "sepera": 6905,
      "grow</w>": 6906,
      "pop": 6907,
      "fix</w>": 6908,
      "wake": 6909,
      "sso</w>": 6910,
      "lefto": 6911,
      "playful</w>": 6912,
      "airliners</w>": 6913,
      "bic</w>": 6914,
      "bento</w>": 6915,
      "ola</w>": 6916,
      "saddled</w>": 6917,
      "sco</w>": 6918,
      "mane</w>": 6919,
      "mance</w>": 6920,
      "tual</w>": 6921,
      "racers</w>": 6922,
      "sunrise</w>": 6923,
      "curls</w>": 6924,
      "cabs</w>": 6925,
      "rounded</w>": 6926,
      "explo": 6927,
      "microphones</w>": 6928,
      "juven": 6929,
      "overturned</w>": 6930,
      "beads</w>": 6931,
      "beaks</w>": 6932,
      "performance</w>": 6933,
      "amen": 6934,
      "handmade</w>": 6935,
      "butt</w>": 6936,
      "headband</w>": 6937,
      "pelicans</w>": 6938,
      "pinned</w>": 6939,
      "projection</w>": 6940,
      "bundles</w>": 6941,
      "allowed</w>": 6942,
      "workspace</w>": 6943,
      "companion</w>": 6944,
      "seasoning</w>": 6945,
      "discussing</w>": 6946,
      "brownie</w>": 6947,
      "lifeguard</w>": 6948,
      "labels</w>": 6949,
      "overalls</w>": 6950,
      "establishment</w>": 6951,
      "miscellaneous</w>": 6952,
      "juicer</w>": 6953,
      "trophy</w>": 6954,
      "ale</w>": 6955,
      "add": 6956,
      "dson</w>": 6957,
      "ere": 6958,
      "ftly</w>": 6959,
      "prai": 6960,
      "tell</w>": 6961,
      "un</w>": 6962,
      "win</w>": 6963,
      "inju": 6964,
      "invol": 6965,
      "antly</w>": 6966,
      "arches</w>": 6967,
      "arview</w>": 6968,
      "repairing</w>": 6969,
      "rearview</w>": 6970,
      "lazy</w>": 6971,
      "ately</w>": 6972,
      "sian</w>": 6973,
      "bases</w>": 6974,
      "baker</w>": 6975,
      "whine</w>": 6976,
      "skele": 6977,
      "skirts</w>": 6978,
      "sons</w>": 6979,
      "fort</w>": 6980,
      "union</w>": 6981,
      "ckling</w>": 6982,
      "parlor</w>": 6983,
      "parsley</w>": 6984,
      "pired</w>": 6985,
      "pilots</w>": 6986,
      "tend</w>": 6987,
      "tends</w>": 6988,
      "ssels</w>": 6989,
      "did</w>": 6990,
      "disa": 6991,
      "mail": 6992,
      "mason</w>": 6993,
      "young": 6994,
      "greet</w>": 6995,
      "stove": 6996,
      "gious</w>": 6997,
      "blur</w>": 6998,
      "vibran": 6999,
      "bison</w>": 7000,
      "converti": 7001,
      "cess</w>": 7002,
      "sala": 7003,
      "banks</w>": 7004,
      "banners</w>": 7005,
      "nie</w>": 7006,
      "hash</w>": 7007,
      "flood</w>": 7008,
      "leafle": 7009,
      "velvet</w>": 7010,
      "marsh</w>": 7011,
      "mickey</w>": 7012,
      "exc": 7013,
      "oversized</w>": 7014,
      "straigh": 7015,
      "pointy</w>": 7016,
      "parasail": 7017,
      "delic": 7018,
      "submarine</w>": 7019,
      "handler</w>": 7020,
      "feature</w>": 7021,
      "steal</w>": 7022,
      "eval</w>": 7023,
      "starts</w>": 7024,
      "india</w>": 7025,
      "locations</w>": 7026,
      "windmill</w>": 7027,
      "europe</w>": 7028,
      "sneaker</w>": 7029,
      "flatbread</w>": 7030,
      "ditori": 7031,
      "parasols</w>": 7032,
      "activity</w>": 7033,
      "memora": 7034,
      "symbols</w>": 7035,
      "popular</w>": 7036,
      "cockpit</w>": 7037,
      "hurdle</w>": 7038,
      "peaceful</w>": 7039,
      "aquarium</w>": 7040,
      "dumpster</w>": 7041,
      "spilled</w>": 7042,
      "defensive</w>": 7043,
      "rately</w>": 7044,
      "participating</w>": 7045,
      "wonderful</w>": 7046,
      "victorian</w>": 7047,
      "jewelry</w>": 7048,
      "aprons</w>": 7049,
      "convertible</w>": 7050,
      "leafless</w>": 7051,
      "dit</w>": 7052,
      "dging</w>": 7053,
      "ever</w>": 7054,
      "edges</w>": 7055,
      "gat": 7056,
      "gummy</w>": 7057,
      "oh</w>": 7058,
      "oid</w>": 7059,
      "selec": 7060,
      "ught</w>": 7061,
      "incre": 7062,
      "roped</w>": 7063,
      "repairs</w>": 7064,
      "bored</w>": 7065,
      "ridge</w>": 7066,
      "rious</w>": 7067,
      "domin": 7068,
      "dolly</w>": 7069,
      "bush": 7070,
      "bearing</w>": 7071,
      "rooster</w>": 7072,
      "casually</w>": 7073,
      "partit": 7074,
      "livin": 7075,
      "lizard</w>": 7076,
      "details</w>": 7077,
      "vessel</w>": 7078,
      "tightly</w>": 7079,
      "tively</w>": 7080,
      "masks</w>": 7081,
      "legos</w>": 7082,
      "pudding</w>": 7083,
      "melons</w>": 7084,
      "grea": 7085,
      "planted</w>": 7086,
      "tech</w>": 7087,
      "filming</w>": 7088,
      "rung</w>": 7089,
      "floored</w>": 7090,
      "exhau": 7091,
      "expired</w>": 7092,
      "purses</w>": 7093,
      "controlling</w>": 7094,
      "overlook</w>": 7095,
      "beams</w>": 7096,
      "quiche</w>": 7097,
      "canned</w>": 7098,
      "upscale</w>": 7099,
      "directs</w>": 7100,
      "swiftly</w>": 7101,
      "fold</w>": 7102,
      "folks</w>": 7103,
      "hours</w>": 7104,
      "butcher</w>": 7105,
      "shearing</w>": 7106,
      "auditori": 7107,
      "related</w>": 7108,
      "flipped</w>": 7109,
      "erie</w>": 7110,
      "sprayed</w>": 7111,
      "slalo": 7112,
      "yawning</w>": 7113,
      "celebratory</w>": 7114,
      "donkeys</w>": 7115,
      "parachutes</w>": 7116,
      "hamster</w>": 7117,
      "movies</w>": 7118,
      "kiteboard</w>": 7119,
      "knitting</w>": 7120,
      "normal</w>": 7121,
      "medieval</w>": 7122,
      "tells</w>": 7123,
      "chunks</w>": 7124,
      "certain</w>": 7125,
      "socializing</w>": 7126,
      "discs</w>": 7127,
      "diagonal</w>": 7128,
      "congratula": 7129,
      "clydes": 7130,
      "davidson</w>": 7131,
      "prairie</w>": 7132,
      "injured</w>": 7133,
      "stovetop</w>": 7134,
      "auditorium</w>": 7135,
      "award</w>": 7136,
      "await</w>": 7137,
      "fer</w>": 7138,
      "gna": 7139,
      "knot</w>": 7140,
      "lon</w>": 7141,
      "lery</w>": 7142,
      "nings</w>": 7143,
      "pins</w>": 7144,
      "rared</w>": 7145,
      "sb</w>": 7146,
      "sche": 7147,
      "tshirt</w>": 7148,
      "hon": 7149,
      "eli": 7150,
      "endly</w>": 7151,
      "pest": 7152,
      "peoples</w>": 7153,
      "searching</w>": 7154,
      "bered</w>": 7155,
      "bedded</w>": 7156,
      "post": 7157,
      "fixes</w>": 7158,
      "coupe</w>": 7159,
      "sigh</w>": 7160,
      "whip</w>": 7161,
      "friendly</w>": 7162,
      "planters</w>": 7163,
      "crochet</w>": 7164,
      "sus</w>": 7165,
      "condit": 7166,
      "misty</w>": 7167,
      "dar</w>": 7168,
      "dash</w>": 7169,
      "guards</w>": 7170,
      "preforming</w>": 7171,
      "stately</w>": 7172,
      "nibbling</w>": 7173,
      "hawai": 7174,
      "sheeps</w>": 7175,
      "collie</w>": 7176,
      "booths</w>": 7177,
      "leafs</w>": 7178,
      "passan": 7179,
      "platforms</w>": 7180,
      "profile</w>": 7181,
      "program</w>": 7182,
      "mature</w>": 7183,
      "monk</w>": 7184,
      "current</w>": 7185,
      "bedside</w>": 7186,
      "exe": 7187,
      "jean</w>": 7188,
      "overview</w>": 7189,
      "blind</w>": 7190,
      "loads</w>": 7191,
      "blown</w>": 7192,
      "arranging</w>": 7193,
      "sour": 7194,
      "seal</w>": 7195,
      "burned</w>": 7196,
      "burgun": 7197,
      "tanks</w>": 7198,
      "scoop</w>": 7199,
      "commuters</w>": 7200,
      "patient</w>": 7201,
      "tones</w>": 7202,
      "celebrates</w>": 7203,
      "magni": 7204,
      "plums</w>": 7205,
      "indicate</w>": 7206,
      "barricade</w>": 7207,
      "browsing</w>": 7208,
      "peanuts</w>": 7209,
      "wildflowers</w>": 7210,
      "license</w>": 7211,
      "twigs</w>": 7212,
      "conveni": 7213,
      "barbeque</w>": 7214,
      "concer": 7215,
      "navigating</w>": 7216,
      "capitol</w>": 7217,
      "religious</w>": 7218,
      "ripened</w>": 7219,
      "horizontal</w>": 7220,
      "homeless</w>": 7221,
      "juvenile</w>": 7222,
      "amenities</w>": 7223,
      "salads</w>": 7224,
      "bushels</w>": 7225,
      "livingroom</w>": 7226,
      "burgundy</w>": 7227,
      "ade</w>": 7228,
      "bm": 7229,
      "eff": 7230,
      "four": 7231,
      "glar": 7232,
      "gge": 7233,
      "mm": 7234,
      "mari": 7235,
      "pear</w>": 7236,
      "sking</w>": 7237,
      "ure": 7238,
      "wl</w>": 7239,
      "za": 7240,
      "antenn": 7241,
      "lavi": 7242,
      "raz": 7243,
      "rat</w>": 7244,
      "los</w>": 7245,
      "love": 7246,
      "atee</w>": 7247,
      "toli": 7248,
      "ild</w>": 7249,
      "womans</w>": 7250,
      "nette</w>": 7251,
      "sox</w>": 7252,
      "sodas</w>": 7253,
      "sequ": 7254,
      "better</w>": 7255,
      "camo": 7256,
      "limbs</w>": 7257,
      "sher</w>": 7258,
      "pigs</w>": 7259,
      "waking</w>": 7260,
      "dia": 7261,
      "diet</w>": 7262,
      "dives</w>": 7263,
      "handrail</w>": 7264,
      "visiting</w>": 7265,
      "eatery</w>": 7266,
      "glass": 7267,
      "facial</w>": 7268,
      "scan": 7269,
      "manic": 7270,
      "mantel</w>": 7271,
      "linked</w>": 7272,
      "discar": 7273,
      "dino": 7274,
      "dingy</w>": 7275,
      "tricycle</w>": 7276,
      "arid</w>": 7277,
      "spa</w>": 7278,
      "cheek</w>": 7279,
      "patches</w>": 7280,
      "forehand</w>": 7281,
      "numbered</w>": 7282,
      "offers</w>": 7283,
      "shakes</w>": 7284,
      "credit</w>": 7285,
      "obscu": 7286,
      "chased</w>": 7287,
      "dental</w>": 7288,
      "wraps</w>": 7289,
      "clip</w>": 7290,
      "chip</w>": 7291,
      "scaf": 7292,
      "headset</w>": 7293,
      "circles</w>": 7294,
      "rama</w>": 7295,
      "granola</w>": 7296,
      "raincoat</w>": 7297,
      "speed": 7298,
      "icebox</w>": 7299,
      "mattresses</w>": 7300,
      "needles</w>": 7301,
      "hairdryer</w>": 7302,
      "adorn</w>": 7303,
      "munching</w>": 7304,
      "flour</w>": 7305,
      "north</w>": 7306,
      "chalk</w>": 7307,
      "cottage</w>": 7308,
      "cruising</w>": 7309,
      "arabic</w>": 7310,
      "maybe</w>": 7311,
      "silhouetted</w>": 7312,
      "rooftop</w>": 7313,
      "protruding</w>": 7314,
      "sidelines</w>": 7315,
      "spanning</w>": 7316,
      "plunger</w>": 7317,
      "minutes</w>": 7318,
      "kitchenette</w>": 7319,
      "university</w>": 7320,
      "elevator</w>": 7321,
      "vibrant</w>": 7322,
      "crying</w>": 7323,
      "dling</w>": 7324,
      "ek</w>": 7325,
      "ex</w>": 7326,
      "flush</w>": 7327,
      "gon": 7328,
      "gry</w>": 7329,
      "galley</w>": 7330,
      "gical</w>": 7331,
      "len": 7332,
      "oar</w>": 7333,
      "pli": 7334,
      "sant</w>": 7335,
      "sings</w>": 7336,
      "ups</w>": 7337,
      "reig": 7338,
      "atched</w>": 7339,
      "dolla": 7340,
      "dolp": 7341,
      "doily</w>": 7342,
      "ender</w>": 7343,
      "envelo": 7344,
      "eacho": 7345,
      "plating</w>": 7346,
      "taste</w>": 7347,
      "pecking</w>": 7348,
      "seem": 7349,
      "focal</w>": 7350,
      "unattended</w>": 7351,
      "cket": 7352,
      "parme": 7353,
      "holly": 7354,
      "potty</w>": 7355,
      "pockets</w>": 7356,
      "smen</w>": 7357,
      "distor": 7358,
      "maple</w>": 7359,
      "pub</w>": 7360,
      "gig": 7361,
      "web": 7362,
      "wii": 7363,
      "wife</w>": 7364,
      "testing</w>": 7365,
      "version</w>": 7366,
      "childs</w>": 7367,
      "mani": 7368,
      "hip</w>": 7369,
      "disgu": 7370,
      "ement</w>": 7371,
      "slop</w>": 7372,
      "hero</w>": 7373,
      "matches</w>": 7374,
      "interse": 7375,
      "surrounds</w>": 7376,
      "ordin": 7377,
      "ordering</w>": 7378,
      "hugs</w>": 7379,
      "minton</w>": 7380,
      "crash</w>": 7381,
      "crashed</w>": 7382,
      "intensely</w>": 7383,
      "breaded</w>": 7384,
      "teacher</w>": 7385,
      "roller": 7386,
      "handstand</w>": 7387,
      "handling</w>": 7388,
      "denim</w>": 7389,
      "hilltop</w>": 7390,
      "penny</w>": 7391,
      "auto</w>": 7392,
      "crumbs</w>": 7393,
      "antic</w>": 7394,
      "sprawled</w>": 7395,
      "charter</w>": 7396,
      "yak</w>": 7397,
      "celebrate</w>": 7398,
      "billowing</w>": 7399,
      "eiffel</w>": 7400,
      "guides</w>": 7401,
      "obstacles</w>": 7402,
      "keeper</w>": 7403,
      "festive</w>": 7404,
      "mouses</w>": 7405,
      "shutters</w>": 7406,
      "inspects</w>": 7407,
      "chalk": 7408,
      "dange": 7409,
      "halfpipe</w>": 7410,
      "luxu": 7411,
      "fellow</w>": 7412,
      "sampling</w>": 7413,
      "crooked</w>": 7414,
      "coconut</w>": 7415,
      "petals</w>": 7416,
      "cleaner</w>": 7417,
      "badminton</w>": 7418,
      "announ": 7419,
      "clydesdale</w>": 7420,
      "loveseat</w>": 7421,
      "toliet</w>": 7422,
      "glassware</w>": 7423,
      "discarded</w>": 7424,
      "dollar</w>": 7425,
      "eachother</w>": 7426,
      "parmesan</w>": 7427,
      "hollywood</w>": 7428,
      "'re</w>": 7429,
      "acro": 7430,
      "bra</w>": 7431,
      "brin": 7432,
      "dr</w>": 7433,
      "fes</w>": 7434,
      "gan</w>": 7435,
      "ivy</w>": 7436,
      "kan": 7437,
      "kha": 7438,
      "prist": 7439,
      "turing</w>": 7440,
      "usa</w>": 7441,
      "vw</w>": 7442,
      "vor": 7443,
      "yers</w>": 7444,
      "thre</w>": 7445,
      "ita</w>": 7446,
      "itting</w>": 7447,
      "angular</w>": 7448,
      "lasa": 7449,
      "always</w>": 7450,
      "altitude</w>": 7451,
      "lock</w>": 7452,
      "toll</w>": 7453,
      "copper</w>": 7454,
      "placi": 7455,
      "bui": 7456,
      "bubbles</w>": 7457,
      "fon": 7458,
      "casing</w>": 7459,
      "lids</w>": 7460,
      "develo": 7461,
      "gras": 7462,
      "wades</w>": 7463,
      "gay</w>": 7464,
      "gazeb": 7465,
      "medal</w>": 7466,
      "basement</w>": 7467,
      "gies</w>": 7468,
      "cardin": 7469,
      "zzi</w>": 7470,
      "web</w>": 7471,
      "bree": 7472,
      "concept</w>": 7473,
      "cuzzi</w>": 7474,
      "safe</w>": 7475,
      "facade</w>": 7476,
      "missed</w>": 7477,
      "ctioned</w>": 7478,
      "embedded</w>": 7479,
      "press</w>": 7480,
      "stationed</w>": 7481,
      "duffel</w>": 7482,
      "collar": 7483,
      "kie</w>": 7484,
      "veled</w>": 7485,
      "tally</w>": 7486,
      "appro": 7487,
      "sleeve</w>": 7488,
      "jacuzzi</w>": 7489,
      "mills</w>": 7490,
      "naps</w>": 7491,
      "purchase</w>": 7492,
      "ordered</w>": 7493,
      "zom": 7494,
      "cisco</w>": 7495,
      "adding</w>": 7496,
      "advan": 7497,
      "panels</w>": 7498,
      "observes</w>": 7499,
      "trans": 7500,
      "clause</w>": 7501,
      "egg": 7502,
      "seaweed</w>": 7503,
      "swimsuit</w>": 7504,
      "acting</w>": 7505,
      "pensive</w>": 7506,
      "waterskiing</w>": 7507,
      "princess</w>": 7508,
      "interested</w>": 7509,
      "converse</w>": 7510,
      "plug</w>": 7511,
      "illustra": 7512,
      "messages</w>": 7513,
      "combined</w>": 7514,
      "occup": 7515,
      "ostriches</w>": 7516,
      "fielder</w>": 7517,
      "flys</w>": 7518,
      "ditch</w>": 7519,
      "demonstrating</w>": 7520,
      "francisco</w>": 7521,
      "aiming</w>": 7522,
      "receiving</w>": 7523,
      "scrub</w>": 7524,
      "switch</w>": 7525,
      "detailed</w>": 7526,
      "awk": 7527,
      "departing</w>": 7528,
      "whom</w>": 7529,
      "majestic</w>": 7530,
      "placemat</w>": 7531,
      "skeleton</w>": 7532,
      "slalom</w>": 7533,
      "execu": 7534,
      "concerned</w>": 7535,
      "effici": 7536,
      "razor</w>": 7537,
      "reigns</w>": 7538,
      "dolph": 7539,
      "gigantic</w>": 7540,
      "ordinary</w>": 7541,
      "luxurious</w>": 7542,
      "lasagna</w>": 7543,
      "gazebo</w>": 7544,
      "cds</w>": 7545,
      "cee": 7546,
      "clin": 7547,
      "edible</w>": 7548,
      "glu": 7549,
      "gled</w>": 7550,
      "ipad</w>": 7551,
      "lli": 7552,
      "mma</w>": 7553,
      "wy</w>": 7554,
      "yon</w>": 7555,
      "anic</w>": 7556,
      "reco": 7557,
      "law</w>": 7558,
      "rates</w>": 7559,
      "lost</w>": 7560,
      "locks</w>": 7561,
      "tots</w>": 7562,
      "simp": 7563,
      "domed</w>": 7564,
      "ene</w>": 7565,
      "ener": 7566,
      "soil</w>": 7567,
      "seclu": 7568,
      "grows</w>": 7569,
      "oning</w>": 7570,
      "onward</w>": 7571,
      "list": 7572,
      "holing</w>": 7573,
      "potter</w>": 7574,
      "paired</w>": 7575,
      "tipped</w>": 7576,
      "moved</w>": 7577,
      "dist": 7578,
      "member</w>": 7579,
      "outlet</w>": 7580,
      "ling": 7581,
      "goatee</w>": 7582,
      "procee": 7583,
      "heron</w>": 7584,
      "battery</w>": 7585,
      "sprin": 7586,
      "marking</w>": 7587,
      "curtained</w>": 7588,
      "clustered</w>": 7589,
      "flash</w>": 7590,
      "offering</w>": 7591,
      "tater</w>": 7592,
      "ornat": 7593,
      "jesus</w>": 7594,
      "beach": 7595,
      "tilting</w>": 7596,
      "drawings</w>": 7597,
      "attachment</w>": 7598,
      "shipping</w>": 7599,
      "blvd</w>": 7600,
      "sands</w>": 7601,
      "breaks</w>": 7602,
      "chases</w>": 7603,
      "hey</w>": 7604,
      "etc</w>": 7605,
      "creamy</w>": 7606,
      "sheering</w>": 7607,
      "blenders</w>": 7608,
      "starring</w>": 7609,
      "rais": 7610,
      "sprays</w>": 7611,
      "snake</w>": 7612,
      "slats</w>": 7613,
      "hungry</w>": 7614,
      "protect</w>": 7615,
      "windsurfer</w>": 7616,
      "bilia</w>": 7617,
      "design": 7618,
      "transported</w>": 7619,
      "scot": 7620,
      "tinfoil</w>": 7621,
      "arrives</w>": 7622,
      "africa</w>": 7623,
      "launching</w>": 7624,
      "elaborately</w>": 7625,
      "moose</w>": 7626,
      "billboards</w>": 7627,
      "possible</w>": 7628,
      "grasslands</w>": 7629,
      "takeout</w>": 7630,
      "butterflies</w>": 7631,
      "bandan": 7632,
      "cocktail</w>": 7633,
      "boulder</w>": 7634,
      "mallows</w>": 7635,
      "southwest</w>": 7636,
      "exercise</w>": 7637,
      "amazing</w>": 7638,
      "warmly</w>": 7639,
      "video": 7640,
      "marshmallows</w>": 7641,
      "lobster</w>": 7642,
      "demolished</w>": 7643,
      "abundance</w>": 7644,
      "youths</w>": 7645,
      "chalkboard</w>": 7646,
      "ornately</w>": 7647,
      "bout</w>": 7648,
      "lin</w>": 7649,
      "osk</w>": 7650,
      "sm</w>": 7651,
      "south</w>": 7652,
      "ttes</w>": 7653,
      "thir": 7654,
      "rode</w>": 7655,
      "ress</w>": 7656,
      "resemble</w>": 7657,
      "strung</w>": 7658,
      "lapel</w>": 7659,
      "aler": 7660,
      "alty</w>": 7661,
      "bomber</w>": 7662,
      "simu": 7663,
      "ripped</w>": 7664,
      "cot</w>": 7665,
      "cobble</w>": 7666,
      "ening</w>": 7667,
      "ented</w>": 7668,
      "baor": 7669,
      "why</w>": 7670,
      "whit": 7671,
      "pews</w>": 7672,
      "petted</w>": 7673,
      "netting</w>": 7674,
      "train": 7675,
      "fod": 7676,
      "shu": 7677,
      "pooh</w>": 7678,
      "fired</w>": 7679,
      "pavil": 7680,
      "rub</w>": 7681,
      "skaters</w>": 7682,
      "winery</w>": 7683,
      "compon": 7684,
      "common</w>": 7685,
      "plans</w>": 7686,
      "temple</w>": 7687,
      "woolly</w>": 7688,
      "fuel</w>": 7689,
      "scri": 7690,
      "mis": 7691,
      "emo</w>": 7692,
      "gor": 7693,
      "gori": 7694,
      "goble": 7695,
      "triangular</w>": 7696,
      "study</w>": 7697,
      "slender</w>": 7698,
      "merry</w>": 7699,
      "merchan": 7700,
      "kiosk</w>": 7701,
      "proper": 7702,
      "flames</w>": 7703,
      "photoshopped</w>": 7704,
      "turf</w>": 7705,
      "turkeys</w>": 7706,
      "nail</w>": 7707,
      "expo": 7708,
      "experi": 7709,
      "beagle</w>": 7710,
      "saucers</w>": 7711,
      "balding</w>": 7712,
      "blank</w>": 7713,
      "speckled</w>": 7714,
      "fireworks</w>": 7715,
      "gripping</w>": 7716,
      "school": 7717,
      "steaming</w>": 7718,
      "cliffs</w>": 7719,
      "accor": 7720,
      "antiques</w>": 7721,
      "witha</w>": 7722,
      "photography</w>": 7723,
      "photographing</w>": 7724,
      "guitars</w>": 7725,
      "itional</w>": 7726,
      "boulev": 7727,
      "organic</w>": 7728,
      "volk": 7729,
      "serviced</w>": 7730,
      "cowboys</w>": 7731,
      "artist</w>": 7732,
      "angled</w>": 7733,
      "dispensers</w>": 7734,
      "scope</w>": 7735,
      "keeps</w>": 7736,
      "rously</w>": 7737,
      "mouth": 7738,
      "kayaks</w>": 7739,
      "alcoholic</w>": 7740,
      "antelopes</w>": 7741,
      "motorists</w>": 7742,
      "avocados</w>": 7743,
      "cylin": 7744,
      "perip": 7745,
      "fitted</w>": 7746,
      "media</w>": 7747,
      "fisheye</w>": 7748,
      "aqua</w>": 7749,
      "tattooed</w>": 7750,
      "senior</w>": 7751,
      "maintained</w>": 7752,
      "manual</w>": 7753,
      "riverbank</w>": 7754,
      "mcdonald</w>": 7755,
      "affection": 7756,
      "automatic</w>": 7757,
      "lantern</w>": 7758,
      "orchard</w>": 7759,
      "prominent</w>": 7760,
      "technology</w>": 7761,
      "memorabilia</w>": 7762,
      "incredible</w>": 7763,
      "hawaiian</w>": 7764,
      "distorted</w>": 7765,
      "pristine</w>": 7766,
      "secluded</w>": 7767,
      "goblets</w>": 7768,
      "boulevard</w>": 7769,
      "ay</w>": 7770,
      "av</w>": 7771,
      "ba</w>": 7772,
      "bi</w>": 7773,
      "citi": 7774,
      "dv": 7775,
      "ed": 7776,
      "eigh": 7777,
      "gely</w>": 7778,
      "ken": 7779,
      "lf</w>": 7780,
      "oars</w>": 7781,
      "pti": 7782,
      "pstick</w>": 7783,
      "wars</w>": 7784,
      "xi": 7785,
      "years</w>": 7786,
      "infront</w>": 7787,
      "restored</w>": 7788,
      "strolling</w>": 7789,
      "laces</w>": 7790,
      "atory</w>": 7791,
      "docum": 7792,
      "cob</w>": 7793,
      "eal</w>": 7794,
      "buo": 7795,
      "net": 7796,
      "solate</w>": 7797,
      "paris</w>": 7798,
      "lipstick</w>": 7799,
      "shut</w>": 7800,
      "desolate</w>": 7801,
      "grafit": 7802,
      "looms</w>": 7803,
      "tender</w>": 7804,
      "rumpled</w>": 7805,
      "given</w>": 7806,
      "wish</w>": 7807,
      "contain</w>": 7808,
      "teh</w>": 7809,
      "cuddled</w>": 7810,
      "picture": 7811,
      "cets</w>": 7812,
      "saw</w>": 7813,
      "sable</w>": 7814,
      "mangoes</w>": 7815,
      "dreary</w>": 7816,
      "filing</w>": 7817,
      "hips</w>": 7818,
      "gulls</w>": 7819,
      "nude</w>": 7820,
      "musc": 7821,
      "leaking</w>": 7822,
      "feild</w>": 7823,
      "sloped</w>": 7824,
      "batter": 7825,
      "cooker</w>": 7826,
      "marin": 7827,
      "patch": 7828,
      "rounds</w>": 7829,
      "shaker</w>": 7830,
      "unidenti": 7831,
      "juggling</w>": 7832,
      "footed</w>": 7833,
      "hus": 7834,
      "sticky</w>": 7835,
      "creating</w>": 7836,
      "creature</w>": 7837,
      "crashes</w>": 7838,
      "cracker</w>": 7839,
      "canyon</w>": 7840,
      "mbing</w>": 7841,
      "firefighters</w>": 7842,
      "seaside</w>": 7843,
      "chick</w>": 7844,
      "lunch": 7845,
      "armchair</w>": 7846,
      "prices</w>": 7847,
      "jetliners</w>": 7848,
      "arrangements</w>": 7849,
      "chuck</w>": 7850,
      "melting</w>": 7851,
      "completing</w>": 7852,
      "attendant</w>": 7853,
      "spending</w>": 7854,
      "angels</w>": 7855,
      "suspenders</w>": 7856,
      "stairwell</w>": 7857,
      "guided</w>": 7858,
      "notebooks</w>": 7859,
      "keeping</w>": 7860,
      "attraction</w>": 7861,
      "workshop</w>": 7862,
      "emerging</w>": 7863,
      "assembled</w>": 7864,
      "blackberry</w>": 7865,
      "hearty</w>": 7866,
      "rhinos</w>": 7867,
      "cotton</w>": 7868,
      "pleasant</w>": 7869,
      "external</w>": 7870,
      "checker": 7871,
      "proudly</w>": 7872,
      "landscaping</w>": 7873,
      "wildebeest</w>": 7874,
      "pumps</w>": 7875,
      "fati": 7876,
      "additional</w>": 7877,
      "mailbox</w>": 7878,
      "bmw</w>": 7879,
      "scaffolding</w>": 7880,
      "seemingly</w>": 7881,
      "active</w>": 7882,
      "flow</w>": 7883,
      "gi</w>": 7884,
      "gons</w>": 7885,
      "heating</w>": 7886,
      "lil": 7887,
      "mpo": 7888,
      "mna": 7889,
      "nun": 7890,
      "pper": 7891,
      "pound</w>": 7892,
      "slu": 7893,
      "scro": 7894,
      "tiling</w>": 7895,
      "tvs</w>": 7896,
      "uneat": 7897,
      "want</w>": 7898,
      "zily</w>": 7899,
      "inations</w>": 7900,
      "arts</w>": 7901,
      "lates</w>": 7902,
      "lazily</w>": 7903,
      "hoses</w>": 7904,
      "sily</w>": 7905,
      "sipping</w>": 7906,
      "sium</w>": 7907,
      "elbow</w>": 7908,
      "dol": 7909,
      "tale</w>": 7910,
      "tagging</w>": 7911,
      "based</w>": 7912,
      "white": 7913,
      "bust</w>": 7914,
      "buliding</w>": 7915,
      "unt</w>": 7916,
      "unopened</w>": 7917,
      "dec": 7918,
      "poor</w>": 7919,
      "poor": 7920,
      "walker</w>": 7921,
      "pay": 7922,
      "tights</w>": 7923,
      "nowhere</w>": 7924,
      "rushing</w>": 7925,
      "ruler</w>": 7926,
      "dips</w>": 7927,
      "signed</w>": 7928,
      "gears</w>": 7929,
      "lecture</w>": 7930,
      "eleven</w>": 7931,
      "compar": 7932,
      "broke</w>": 7933,
      "cuis": 7934,
      "cuddles</w>": 7935,
      "vertically</w>": 7936,
      "cedes</w>": 7937,
      "formed</w>": 7938,
      "favor": 7939,
      "countries</w>": 7940,
      "gua": 7941,
      "dispo": 7942,
      "sheep": 7943,
      "due</w>": 7944,
      "booze</w>": 7945,
      "strikes</w>": 7946,
      "remodel</w>": 7947,
      "jail</w>": 7948,
      "patties</w>": 7949,
      "international</w>": 7950,
      "restaurants</w>": 7951,
      "overflowing</w>": 7952,
      "joh": 7953,
      "jogging</w>": 7954,
      "mint</w>": 7955,
      "minimal</w>": 7956,
      "scenes</w>": 7957,
      "barking</w>": 7958,
      "creation</w>": 7959,
      "underwater</w>": 7960,
      "crafting</w>": 7961,
      "firemen</w>": 7962,
      "hedges</w>": 7963,
      "handheld</w>": 7964,
      "toasting</w>": 7965,
      "chim": 7966,
      "nations</w>": 7967,
      "gazes</w>": 7968,
      "competitor</w>": 7969,
      "snap</w>": 7970,
      "protesters</w>": 7971,
      "chubby</w>": 7972,
      "glide</w>": 7973,
      "musici": 7974,
      "cigarettes</w>": 7975,
      "bloody</w>": 7976,
      "projected</w>": 7977,
      "jerseys</w>": 7978,
      "notepad</w>": 7979,
      "impre": 7980,
      "remodeling</w>": 7981,
      "gymna": 7982,
      "spice</w>": 7983,
      "blem</w>": 7984,
      "gazelles</w>": 7985,
      "wreath</w>": 7986,
      "theatre</w>": 7987,
      "perfectly</w>": 7988,
      "apparat": 7989,
      "bones</w>": 7990,
      "reveals</w>": 7991,
      "punch</w>": 7992,
      "drum</w>": 7993,
      "guns</w>": 7994,
      "congregate</w>": 7995,
      "waiter</w>": 7996,
      "binder</w>": 7997,
      "teammates</w>": 7998,
      "concentrating</w>": 7999,
      "topless</w>": 8000,
      "faucets</w>": 8001,
      "source</w>": 8002,
      "placid</w>": 8003,
      "raisins</w>": 8004,
      "bandanna</w>": 8005,
      "baord</w>": 8006,
      "gorilla</w>": 8007,
      "periphe": 8008,
      "dvds</w>": 8009,
      "picturesque</w>": 8010,
      "batteries</w>": 8011,
      "husband</w>": 8012,
      "uneaten</w>": 8013,
      "poorly</w>": 8014,
      "cuisine</w>": 8015,
      "favorite</w>": 8016,
      "ass</w>": 8017,
      "act</w>": 8018,
      "dals</w>": 8019,
      "dell</w>": 8020,
      "dyed</w>": 8021,
      "eglass</w>": 8022,
      "ky": 8023,
      "mic</w>": 8024,
      "pra": 8025,
      "sse</w>": 8026,
      "slight</w>": 8027,
      "sales</w>": 8028,
      "vul": 8029,
      "wrink": 8030,
      "inse": 8031,
      "inser": 8032,
      "rocket</w>": 8033,
      "rer</w>": 8034,
      "ret</w>": 8035,
      "refu": 8036,
      "rains</w>": 8037,
      "outer</w>": 8038,
      "ality</w>": 8039,
      "toes</w>": 8040,
      "boar</w>": 8041,
      "sight": 8042,
      "ribs</w>": 8043,
      "chair": 8044,
      "iring</w>": 8045,
      "bump</w>": 8046,
      "trade</w>": 8047,
      "solit": 8048,
      "seat": 8049,
      "fox</w>": 8050,
      "casts</w>": 8051,
      "growth</w>": 8052,
      "ckoo</w>": 8053,
      "pome": 8054,
      "poll</w>": 8055,
      "pops</w>": 8056,
      "pawing</w>": 8057,
      "closure</w>": 8058,
      "wade</w>": 8059,
      "wagons</w>": 8060,
      "mop</w>": 8061,
      "model": 8062,
      "dise</w>": 8063,
      "puffy</w>": 8064,
      "baseballs</w>": 8065,
      "caring</w>": 8066,
      "wid": 8067,
      "conditi": 8068,
      "cuckoo</w>": 8069,
      "verted</w>": 8070,
      "lapen": 8071,
      "fork": 8072,
      "options</w>": 8073,
      "filtered</w>": 8074,
      "filmed</w>": 8075,
      "daf": 8076,
      "gum</w>": 8077,
      "lincol": 8078,
      "cation</w>": 8079,
      "vacy</w>": 8080,
      "stain</w>": 8081,
      "dries</w>": 8082,
      "drizzled</w>": 8083,
      "dug</w>": 8084,
      "hygi": 8085,
      "colt</w>": 8086,
      "mercedes</w>": 8087,
      "engine": 8088,
      "battle</w>": 8089,
      "brussel</w>": 8090,
      "monkeys</w>": 8091,
      "anized</w>": 8092,
      "march</w>": 8093,
      "curl</w>": 8094,
      "clusters</w>": 8095,
      "flame</w>": 8096,
      "jalapen": 8097,
      "chops</w>": 8098,
      "cheering</w>": 8099,
      "cider</w>": 8100,
      "saur</w>": 8101,
      "multitude</w>": 8102,
      "attacking</w>": 8103,
      "created</w>": 8104,
      "sanctu": 8105,
      "canes</w>": 8106,
      "touched</w>": 8107,
      "calmly</w>": 8108,
      "wrappers</w>": 8109,
      "sheared</w>": 8110,
      "advertises</w>": 8111,
      "pallet</w>": 8112,
      "coast": 8113,
      "wares</w>": 8114,
      "america</w>": 8115,
      "flushing</w>": 8116,
      "privacy</w>": 8117,
      "skylight</w>": 8118,
      "protesting</w>": 8119,
      "bought</w>": 8120,
      "chute</w>": 8121,
      "connecting</w>": 8122,
      "tuna</w>": 8123,
      "shrub</w>": 8124,
      "cities</w>": 8125,
      "gerly</w>": 8126,
      "onlooker</w>": 8127,
      "haul</w>": 8128,
      "bloom</w>": 8129,
      "bikinis</w>": 8130,
      "thora</w>": 8131,
      "adorns</w>": 8132,
      "spires</w>": 8133,
      "occa": 8134,
      "flatscreen</w>": 8135,
      "autograph": 8136,
      "rectangle</w>": 8137,
      "avoid</w>": 8138,
      "interact</w>": 8139,
      "penguins</w>": 8140,
      "kick": 8141,
      "streaming</w>": 8142,
      "apparently</w>": 8143,
      "flavor</w>": 8144,
      "plethora</w>": 8145,
      "grounds</w>": 8146,
      "pacifier</w>": 8147,
      "omele": 8148,
      "success": 8149,
      "guarding</w>": 8150,
      "leftover</w>": 8151,
      "passanger</w>": 8152,
      "manicured</w>": 8153,
      "obscured</w>": 8154,
      "pliers</w>": 8155,
      "dangerous</w>": 8156,
      "cardinal</w>": 8157,
      "collared</w>": 8158,
      "eggplant</w>": 8159,
      "exposure</w>": 8160,
      "gymnasium</w>": 8161,
      "lincoln</w>": 8162,
      "sanctuary</w>": 8163,
      "ala": 8164,
      "astro": 8165,
      "broom</w>": 8166,
      "drea": 8167,
      "dummy</w>": 8168,
      "ggle</w>": 8169,
[...]
